{
  "version": "1.0",
  "truncation": null,
  "padding": null,
  "added_tokens": [
    {
      "id": 0,
      "content": "<unk>",
      "single_word": false,
      "lstrip": false,
      "rstrip": false,
      "normalized": false,
      "special": true
    },
    {
      "id": 1,
      "content": "<s>",
      "single_word": false,
      "lstrip": false,
      "rstrip": false,
      "normalized": false,
      "special": true
    },
    {
      "id": 2,
      "content": "</s>",
      "single_word": false,
      "lstrip": false,
      "rstrip": false,
      "normalized": false,
      "special": true
    },
    {
      "id": 3,
      "content": "<pad>",
      "single_word": false,
      "lstrip": false,
      "rstrip": false,
      "normalized": false,
      "special": true
    },
    {
      "id": 4,
      "content": "<mask>",
      "single_word": false,
      "lstrip": false,
      "rstrip": false,
      "normalized": false,
      "special": true
    }
  ],
  "normalizer": null,
  "pre_tokenizer": {
    "type": "Sequence",
    "pretokenizers": [
      {
        "type": "WhitespaceSplit"
      },
      {
        "type": "Punctuation",
        "behavior": "Isolated"
      }
    ]
  },
  "post_processor": {
    "type": "TemplateProcessing",
    "single": [
      {
        "Sequence": {
          "id": "A",
          "type_id": 0
        }
      }
    ],
    "pair": [
      {
        "Sequence": {
          "id": "A",
          "type_id": 0
        }
      },
      {
        "Sequence": {
          "id": "B",
          "type_id": 1
        }
      }
    ],
    "special_tokens": {}
  },
  "decoder": {
    "type": "BPEDecoder",
    "suffix": "</w>"
  },
  "model": {
    "type": "BPE",
    "dropout": null,
    "unk_token": "<unk>",
    "continuing_subword_prefix": null,
    "end_of_word_suffix": null,
    "fuse_unk": false,
    "byte_fallback": false,
    "ignore_merges": false,
    "vocab": {
      "<unk>": 0,
      "<s>": 1,
      "</s>": 2,
      "<pad>": 3,
      "<mask>": 4,
      "!": 5,
      "\"": 6,
      "#": 7,
      "$": 8,
      "%": 9,
      "&": 10,
      "'": 11,
      "(": 12,
      ")": 13,
      "*": 14,
      "+": 15,
      ",": 16,
      "-": 17,
      ".": 18,
      "/": 19,
      "0": 20,
      "1": 21,
      "2": 22,
      "3": 23,
      "4": 24,
      "5": 25,
      "6": 26,
      "7": 27,
      "8": 28,
      "9": 29,
      ":": 30,
      ";": 31,
      "<": 32,
      "=": 33,
      ">": 34,
      "?": 35,
      "@": 36,
      "A": 37,
      "B": 38,
      "C": 39,
      "D": 40,
      "E": 41,
      "F": 42,
      "G": 43,
      "H": 44,
      "I": 45,
      "J": 46,
      "K": 47,
      "L": 48,
      "M": 49,
      "N": 50,
      "O": 51,
      "P": 52,
      "Q": 53,
      "R": 54,
      "S": 55,
      "T": 56,
      "U": 57,
      "V": 58,
      "W": 59,
      "X": 60,
      "Y": 61,
      "Z": 62,
      "[": 63,
      "\\": 64,
      "]": 65,
      "^": 66,
      "_": 67,
      "a": 68,
      "b": 69,
      "c": 70,
      "d": 71,
      "e": 72,
      "f": 73,
      "g": 74,
      "h": 75,
      "i": 76,
      "j": 77,
      "k": 78,
      "l": 79,
      "m": 80,
      "n": 81,
      "o": 82,
      "p": 83,
      "q": 84,
      "r": 85,
      "s": 86,
      "t": 87,
      "u": 88,
      "v": 89,
      "w": 90,
      "x": 91,
      "y": 92,
      "z": 93,
      "{": 94,
      "|": 95,
      "}": 96,
      "~": 97,
      "£": 98,
      "¥": 99,
      "§": 100,
      "¨": 101,
      "¬": 102,
      "­": 103,
      "°": 104,
      "±": 105,
      "²": 106,
      "³": 107,
      "·": 108,
      "¹": 109,
      "½": 110,
      "×": 111,
      "Ø": 112,
      "Ü": 113,
      "ß": 114,
      "à": 115,
      "á": 116,
      "ç": 117,
      "è": 118,
      "é": 119,
      "ê": 120,
      "ì": 121,
      "í": 122,
      "ð": 123,
      "ñ": 124,
      "ò": 125,
      "ó": 126,
      "ô": 127,
      "ö": 128,
      "÷": 129,
      "ø": 130,
      "ù": 131,
      "ú": 132,
      "ü": 133,
      "ā": 134,
      "ē": 135,
      "ě": 136,
      "ī": 137,
      "ō": 138,
      "ū": 139,
      "ǎ": 140,
      "ǐ": 141,
      "ǒ": 142,
      "ǔ": 143,
      "ǖ": 144,
      "ǘ": 145,
      "ǚ": 146,
      "ǜ": 147,
      "ǹ": 148,
      "ɑ": 149,
      "ə": 150,
      "ɡ": 151,
      "ɪ": 152,
      "ˇ": 153,
      "ˈ": 154,
      "ˊ": 155,
      "ˋ": 156,
      "ˍ": 157,
      "˙": 158,
      "Γ": 159,
      "Δ": 160,
      "Ι": 161,
      "Π": 162,
      "Ω": 163,
      "α": 164,
      "β": 165,
      "γ": 166,
      "δ": 167,
      "ε": 168,
      "η": 169,
      "θ": 170,
      "ι": 171,
      "κ": 172,
      "λ": 173,
      "μ": 174,
      "ν": 175,
      "ο": 176,
      "π": 177,
      "ρ": 178,
      "ς": 179,
      "σ": 180,
      "τ": 181,
      "φ": 182,
      "ψ": 183,
      "ω": 184,
      "ό": 185,
      "С": 186,
      "Х": 187,
      "Я": 188,
      "ё": 189,
      "є": 190,
      "।": 191,
      "Ἥ": 192,
      "​": 193,
      "‌": 194,
      "‍": 195,
      "―": 196,
      "‖": 197,
      "•": 198,
      "‧": 199,
      "‰": 200,
      "″": 201,
      "※": 202,
      "⁰": 203,
      "⁺": 204,
      "⁻": 205,
      "₂": 206,
      "₄": 207,
      "℃": 208,
      "™": 209,
      "ℤ": 210,
      "Ⅰ": 211,
      "Ⅱ": 212,
      "Ⅲ": 213,
      "Ⅳ": 214,
      "Ⅴ": 215,
      "Ⅵ": 216,
      "Ⅶ": 217,
      "ⅰ": 218,
      "ⅱ": 219,
      "ⅲ": 220,
      "ⅳ": 221,
      "ⅹ": 222,
      "←": 223,
      "↑": 224,
      "→": 225,
      "↓": 226,
      "↔": 227,
      "⇌": 228,
      "⇒": 229,
      "∀": 230,
      "∃": 231,
      "∈": 232,
      "∍": 233,
      "−": 234,
      "∘": 235,
      "∙": 236,
      "√": 237,
      "∝": 238,
      "∞": 239,
      "∟": 240,
      "∠": 241,
      "∥": 242,
      "∧": 243,
      "∨": 244,
      "∩": 245,
      "∪": 246,
      "∴": 247,
      "∵": 248,
      "∶": 249,
      "∷": 250,
      "∼": 251,
      "≈": 252,
      "≌": 253,
      "≠": 254,
      "≡": 255,
      "≤": 256,
      "≥": 257,
      "≧": 258,
      "⊆": 259,
      "⊇": 260,
      "⊕": 261,
      "⊙": 262,
      "⊥": 263,
      "⌒": 264,
      "①": 265,
      "②": 266,
      "③": 267,
      "④": 268,
      "⑤": 269,
      "⑥": 270,
      "⑦": 271,
      "⑧": 272,
      "⑨": 273,
      "⑩": 274,
      "⑪": 275,
      "⑫": 276,
      "⑬": 277,
      "⑭": 278,
      "⑴": 279,
      "⑵": 280,
      "⑶": 281,
      "⑺": 282,
      "⑻": 283,
      "⑼": 284,
      "⑽": 285,
      "⑾": 286,
      "⑿": 287,
      "⒀": 288,
      "⒁": 289,
      "⒂": 290,
      "⒃": 291,
      "⒄": 292,
      "⒆": 293,
      "⒈": 294,
      "⒉": 295,
      "⒊": 296,
      "⒋": 297,
      "⒌": 298,
      "⒍": 299,
      "⒗": 300,
      "⒘": 301,
      "─": 302,
      "│": 303,
      "┄": 304,
      "┅": 305,
      "┈": 306,
      "┏": 307,
      "┓": 308,
      "┛": 309,
      "┞": 310,
      "┫": 311,
      "═": 312,
      "╳": 313,
      "■": 314,
      "□": 315,
      "▪": 316,
      "▲": 317,
      "△": 318,
      "◆": 319,
      "◇": 320,
      "○": 321,
      "◎": 322,
      "●": 323,
      "◻": 324,
      "☀": 325,
      "☁": 326,
      "★": 327,
      "☆": 328,
      "☉": 329,
      "☿": 330,
      "♀": 331,
      "♂": 332,
      "⚠": 333,
      "✓": 334,
      "✔": 335,
      "✕": 336,
      "✘": 337,
      "❄": 338,
      "⫋": 339,
      "⺠": 340,
      "⺶": 341,
      "⻋": 342,
      "⻐": 343,
      "⻓": 344,
      "⻖": 345,
      "⻗": 346,
      "⻩": 347,
      "⼈": 348,
      "⼝": 349,
      "⼤": 350,
      "⼧": 351,
      "⼲": 352,
      "⽆": 353,
      "⽕": 354,
      "⽜": 355,
      "⽤": 356,
      "⽯": 357,
      "⽽": 358,
      "⽿": 359,
      "⾯": 360,
      "⾳": 361,
      "⾼": 362,
      "、": 363,
      "。": 364,
      "〃": 365,
      "〇": 366,
      "〈": 367,
      "〉": 368,
      "《": 369,
      "》": 370,
      "「": 371,
      "」": 372,
      "『": 373,
      "』": 374,
      "【": 375,
      "】": 376,
      "〔": 377,
      "〕": 378,
      "〗": 379,
      "〜": 380,
      "あ": 381,
      "い": 382,
      "が": 383,
      "し": 384,
      "ち": 385,
      "と": 386,
      "ぷ": 387,
      "り": 388,
      "オ": 389,
      "カ": 390,
      "ノ": 391,
      "フ": 392,
      "・": 393,
      "ー": 394,
      "ㄉ": 395,
      "ㄍ": 396,
      "ㄏ": 397,
      "ㄐ": 398,
      "ㄒ": 399,
      "ㄘ": 400,
      "ㄙ": 401,
      "ㄚ": 402,
      "ㄟ": 403,
      "ㄣ": 404,
      "ㄤ": 405,
      "ㄥ": 406,
      "ㄨ": 407,
      "ㄩ": 408,
      "ㄱ": 409,
      "ㄴ": 410,
      "㇏": 411,
      "㎏": 412,
      "㎡": 413,
      "㐱": 414,
      "㓟": 415,
      "㔙": 416,
      "㝍": 417,
      "㢀": 418,
      "㧐": 419,
      "㲴": 420,
      "䀦": 421,
      "䊁": 422,
      "䏠": 423,
      "䒩": 424,
      "䓌": 425,
      "䚺": 426,
      "䜣": 427,
      "䜩": 428,
      "䣭": 429,
      "䥻": 430,
      "䩗": 431,
      "䴕": 432,
      "一": 433,
      "丁": 434,
      "七": 435,
      "丅": 436,
      "万": 437,
      "丈": 438,
      "三": 439,
      "上": 440,
      "下": 441,
      "丌": 442,
      "不": 443,
      "与": 444,
      "丐": 445,
      "丑": 446,
      "专": 447,
      "且": 448,
      "丕": 449,
      "世": 450,
      "丘": 451,
      "丙": 452,
      "业": 453,
      "丛": 454,
      "东": 455,
      "丝": 456,
      "丞": 457,
      "丟": 458,
      "丢": 459,
      "两": 460,
      "严": 461,
      "並": 462,
      "丧": 463,
      "丨": 464,
      "个": 465,
      "丫": 466,
      "丬": 467,
      "中": 468,
      "丰": 469,
      "串": 470,
      "临": 471,
      "丶": 472,
      "丷": 473,
      "丸": 474,
      "丹": 475,
      "为": 476,
      "主": 477,
      "丽": 478,
      "举": 479,
      "丿": 480,
      "乀": 481,
      "乂": 482,
      "乃": 483,
      "久": 484,
      "乇": 485,
      "么": 486,
      "义": 487,
      "之": 488,
      "乌": 489,
      "乍": 490,
      "乎": 491,
      "乏": 492,
      "乐": 493,
      "乒": 494,
      "乓": 495,
      "乔": 496,
      "乖": 497,
      "乘": 498,
      "乙": 499,
      "乜": 500,
      "九": 501,
      "乞": 502,
      "也": 503,
      "习": 504,
      "乡": 505,
      "书": 506,
      "乩": 507,
      "买": 508,
      "乱": 509,
      "乳": 510,
      "乾": 511,
      "亂": 512,
      "了": 513,
      "予": 514,
      "争": 515,
      "亊": 516,
      "事": 517,
      "二": 518,
      "亍": 519,
      "于": 520,
      "亏": 521,
      "云": 522,
      "互": 523,
      "亓": 524,
      "五": 525,
      "井": 526,
      "亘": 527,
      "亚": 528,
      "些": 529,
      "亞": 530,
      "亟": 531,
      "亠": 532,
      "亡": 533,
      "亢": 534,
      "交": 535,
      "亥": 536,
      "亦": 537,
      "产": 538,
      "亨": 539,
      "亩": 540,
      "享": 541,
      "京": 542,
      "亭": 543,
      "亮": 544,
      "亲": 545,
      "亳": 546,
      "亵": 547,
      "亶": 548,
      "亸": 549,
      "亹": 550,
      "人": 551,
      "亻": 552,
      "亿": 553,
      "什": 554,
      "仁": 555,
      "仃": 556,
      "仄": 557,
      "仅": 558,
      "仆": 559,
      "仇": 560,
      "仉": 561,
      "今": 562,
      "介": 563,
      "仍": 564,
      "从": 565,
      "仑": 566,
      "仓": 567,
      "仔": 568,
      "仕": 569,
      "他": 570,
      "仗": 571,
      "付": 572,
      "仙": 573,
      "仝": 574,
      "仞": 575,
      "仟": 576,
      "仡": 577,
      "代": 578,
      "令": 579,
      "以": 580,
      "仨": 581,
      "仪": 582,
      "们": 583,
      "仰": 584,
      "仲": 585,
      "仵": 586,
      "件": 587,
      "价": 588,
      "任": 589,
      "仼": 590,
      "份": 591,
      "仿": 592,
      "企": 593,
      "伉": 594,
      "伊": 595,
      "伋": 596,
      "伍": 597,
      "伎": 598,
      "伏": 599,
      "伐": 600,
      "休": 601,
      "伕": 602,
      "众": 603,
      "优": 604,
      "伙": 605,
      "会": 606,
      "伛": 607,
      "伞": 608,
      "伟": 609,
      "传": 610,
      "伢": 611,
      "伤": 612,
      "伥": 613,
      "伦": 614,
      "伧": 615,
      "伪": 616,
      "伫": 617,
      "伯": 618,
      "估": 619,
      "伲": 620,
      "伴": 621,
      "伶": 622,
      "伸": 623,
      "伹": 624,
      "伺": 625,
      "伻": 626,
      "似": 627,
      "伽": 628,
      "佁": 629,
      "佃": 630,
      "但": 631,
      "佈": 632,
      "位": 633,
      "低": 634,
      "住": 635,
      "佐": 636,
      "佑": 637,
      "体": 638,
      "何": 639,
      "佗": 640,
      "佘": 641,
      "余": 642,
      "佚": 643,
      "佛": 644,
      "作": 645,
      "佝": 646,
      "佞": 647,
      "佟": 648,
      "你": 649,
      "佢": 650,
      "佣": 651,
      "佤": 652,
      "佥": 653,
      "佩": 654,
      "佬": 655,
      "佯": 656,
      "佰": 657,
      "佳": 658,
      "佶": 659,
      "佷": 660,
      "佺": 661,
      "佻": 662,
      "佼": 663,
      "佾": 664,
      "使": 665,
      "侁": 666,
      "侂": 667,
      "侃": 668,
      "侄": 669,
      "來": 670,
      "侈": 671,
      "侉": 672,
      "侊": 673,
      "例": 674,
      "侍": 675,
      "侎": 676,
      "侏": 677,
      "侑": 678,
      "侓": 679,
      "侔": 680,
      "侗": 681,
      "供": 682,
      "依": 683,
      "侠": 684,
      "侣": 685,
      "侥": 686,
      "侦": 687,
      "侧": 688,
      "侨": 689,
      "侩": 690,
      "侪": 691,
      "侬": 692,
      "侭": 693,
      "侮": 694,
      "侯": 695,
      "侵": 696,
      "便": 697,
      "係": 698,
      "促": 699,
      "俄": 700,
      "俅": 701,
      "俊": 702,
      "俎": 703,
      "俏": 704,
      "俐": 705,
      "俑": 706,
      "俗": 707,
      "俘": 708,
      "俚": 709,
      "俛": 710,
      "俜": 711,
      "保": 712,
      "俞": 713,
      "俟": 714,
      "信": 715,
      "俣": 716,
      "俦": 717,
      "俨": 718,
      "俩": 719,
      "俪": 720,
      "俬": 721,
      "俭": 722,
      "修": 723,
      "俯": 724,
      "俱": 725,
      "俶": 726,
      "俸": 727,
      "俺": 728,
      "俾": 729,
      "倅": 730,
      "倆": 731,
      "倉": 732,
      "個": 733,
      "倌": 734,
      "倍": 735,
      "倏": 736,
      "們": 737,
      "倒": 738,
      "倔": 739,
      "倖": 740,
      "倘": 741,
      "候": 742,
      "倚": 743,
      "倜": 744,
      "借": 745,
      "倡": 746,
      "倥": 747,
      "倦": 748,
      "倨": 749,
      "倩": 750,
      "倪": 751,
      "倫": 752,
      "倬": 753,
      "倭": 754,
      "倮": 755,
      "倶": 756,
      "倷": 757,
      "债": 758,
      "值": 759,
      "倾": 760,
      "偁": 761,
      "偃": 762,
      "假": 763,
      "偈": 764,
      "偌": 765,
      "偎": 766,
      "偏": 767,
      "偓": 768,
      "偕": 769,
      "做": 770,
      "停": 771,
      "健": 772,
      "偬": 773,
      "偱": 774,
      "側": 775,
      "偶": 776,
      "偷": 777,
      "偸": 778,
      "偻": 779,
      "偾": 780,
      "偿": 781,
      "傀": 782,
      "傅": 783,
      "傈": 784,
      "傍": 785,
      "傑": 786,
      "傕": 787,
      "備": 788,
      "傢": 789,
      "傣": 790,
      "傥": 791,
      "储": 792,
      "傩": 793,
      "催": 794,
      "傲": 795,
      "傳": 796,
      "傷": 797,
      "傻": 798,
      "僇": 799,
      "像": 800,
      "僖": 801,
      "僚": 802,
      "僜": 803,
      "僣": 804,
      "僦": 805,
      "僧": 806,
      "僭": 807,
      "僮": 808,
      "僰": 809,
      "僳": 810,
      "僵": 811,
      "價": 812,
      "僻": 813,
      "儆": 814,
      "儇": 815,
      "儋": 816,
      "儍": 817,
      "儒": 818,
      "儘": 819,
      "償": 820,
      "儡": 821,
      "優": 822,
      "儵": 823,
      "儿": 824,
      "兀": 825,
      "允": 826,
      "元": 827,
      "兄": 828,
      "充": 829,
      "兆": 830,
      "兇": 831,
      "先": 832,
      "光": 833,
      "克": 834,
      "免": 835,
      "兑": 836,
      "兒": 837,
      "兔": 838,
      "兕": 839,
      "兖": 840,
      "党": 841,
      "兜": 842,
      "兢": 843,
      "入": 844,
      "內": 845,
      "全": 846,
      "兩": 847,
      "八": 848,
      "公": 849,
      "六": 850,
      "兮": 851,
      "兰": 852,
      "共": 853,
      "关": 854,
      "兴": 855,
      "兵": 856,
      "其": 857,
      "具": 858,
      "典": 859,
      "兹": 860,
      "养": 861,
      "兼": 862,
      "兽": 863,
      "冀": 864,
      "冁": 865,
      "冂": 866,
      "内": 867,
      "冇": 868,
      "冈": 869,
      "冉": 870,
      "冋": 871,
      "册": 872,
      "再": 873,
      "冏": 874,
      "冒": 875,
      "冕": 876,
      "冗": 877,
      "写": 878,
      "军": 879,
      "农": 880,
      "冠": 881,
      "冢": 882,
      "冤": 883,
      "冥": 884,
      "冫": 885,
      "冬": 886,
      "冯": 887,
      "冰": 888,
      "冱": 889,
      "冲": 890,
      "决": 891,
      "冴": 892,
      "况": 893,
      "冶": 894,
      "冷": 895,
      "冻": 896,
      "冼": 897,
      "冽": 898,
      "净": 899,
      "凄": 900,
      "准": 901,
      "凇": 902,
      "凉": 903,
      "凊": 904,
      "凋": 905,
      "凌": 906,
      "凍": 907,
      "减": 908,
      "凑": 909,
      "凛": 910,
      "凝": 911,
      "几": 912,
      "凡": 913,
      "凤": 914,
      "凫": 915,
      "凭": 916,
      "凯": 917,
      "凰": 918,
      "凳": 919,
      "凵": 920,
      "凶": 921,
      "凸": 922,
      "凹": 923,
      "出": 924,
      "击": 925,
      "凼": 926,
      "函": 927,
      "凿": 928,
      "刀": 929,
      "刁": 930,
      "刂": 931,
      "刃": 932,
      "分": 933,
      "切": 934,
      "刈": 935,
      "刊": 936,
      "刍": 937,
      "刎": 938,
      "刑": 939,
      "划": 940,
      "刓": 941,
      "刖": 942,
      "列": 943,
      "刘": 944,
      "则": 945,
      "刚": 946,
      "创": 947,
      "初": 948,
      "删": 949,
      "判": 950,
      "別": 951,
      "刨": 952,
      "利": 953,
      "别": 954,
      "刮": 955,
      "到": 956,
      "刳": 957,
      "制": 958,
      "刷": 959,
      "券": 960,
      "刹": 961,
      "刺": 962,
      "刻": 963,
      "刽": 964,
      "刿": 965,
      "剁": 966,
      "剂": 967,
      "剃": 968,
      "則": 969,
      "削": 970,
      "剌": 971,
      "前": 972,
      "剐": 973,
      "剑": 974,
      "剔": 975,
      "剖": 976,
      "剚": 977,
      "剛": 978,
      "剜": 979,
      "剡": 980,
      "剥": 981,
      "剧": 982,
      "剩": 983,
      "剪": 984,
      "副": 985,
      "割": 986,
      "創": 987,
      "剽": 988,
      "剿": 989,
      "劈": 990,
      "劓": 991,
      "力": 992,
      "劝": 993,
      "办": 994,
      "功": 995,
      "加": 996,
      "务": 997,
      "劣": 998,
      "动": 999,
      "助": 1000,
      "努": 1001,
      "劫": 1002,
      "劭": 1003,
      "励": 1004,
      "劲": 1005,
      "劳": 1006,
      "劵": 1007,
      "劻": 1008,
      "劼": 1009,
      "劾": 1010,
      "势": 1011,
      "勁": 1012,
      "勃": 1013,
      "勇": 1014,
      "勉": 1015,
      "勋": 1016,
      "勐": 1017,
      "勒": 1018,
      "勔": 1019,
      "動": 1020,
      "勖": 1021,
      "勘": 1022,
      "務": 1023,
      "勞": 1024,
      "募": 1025,
      "勣": 1026,
      "勤": 1027,
      "勰": 1028,
      "勵": 1029,
      "勺": 1030,
      "勾": 1031,
      "勿": 1032,
      "匀": 1033,
      "包": 1034,
      "匆": 1035,
      "匈": 1036,
      "匍": 1037,
      "匏": 1038,
      "匐": 1039,
      "匕": 1040,
      "化": 1041,
      "北": 1042,
      "匙": 1043,
      "匚": 1044,
      "匝": 1045,
      "匠": 1046,
      "匡": 1047,
      "匣": 1048,
      "匪": 1049,
      "匮": 1050,
      "匯": 1051,
      "匹": 1052,
      "区": 1053,
      "医": 1054,
      "匾": 1055,
      "匿": 1056,
      "十": 1057,
      "千": 1058,
      "卅": 1059,
      "升": 1060,
      "午": 1061,
      "卉": 1062,
      "半": 1063,
      "华": 1064,
      "协": 1065,
      "卑": 1066,
      "卒": 1067,
      "卓": 1068,
      "单": 1069,
      "卖": 1070,
      "南": 1071,
      "単": 1072,
      "博": 1073,
      "卜": 1074,
      "卞": 1075,
      "卟": 1076,
      "占": 1077,
      "卡": 1078,
      "卢": 1079,
      "卤": 1080,
      "卦": 1081,
      "卧": 1082,
      "卨": 1083,
      "卩": 1084,
      "卫": 1085,
      "卮": 1086,
      "卯": 1087,
      "印": 1088,
      "危": 1089,
      "即": 1090,
      "却": 1091,
      "卵": 1092,
      "卷": 1093,
      "卸": 1094,
      "卺": 1095,
      "卻": 1096,
      "卿": 1097,
      "厂": 1098,
      "厄": 1099,
      "厅": 1100,
      "历": 1101,
      "厉": 1102,
      "压": 1103,
      "厌": 1104,
      "厕": 1105,
      "厘": 1106,
      "厚": 1107,
      "厝": 1108,
      "原": 1109,
      "厢": 1110,
      "厣": 1111,
      "厥": 1112,
      "厦": 1113,
      "厨": 1114,
      "厩": 1115,
      "厭": 1116,
      "厮": 1117,
      "厲": 1118,
      "去": 1119,
      "县": 1120,
      "叁": 1121,
      "参": 1122,
      "參": 1123,
      "又": 1124,
      "叉": 1125,
      "及": 1126,
      "友": 1127,
      "双": 1128,
      "反": 1129,
      "发": 1130,
      "叔": 1131,
      "取": 1132,
      "受": 1133,
      "变": 1134,
      "叙": 1135,
      "叛": 1136,
      "叟": 1137,
      "叠": 1138,
      "叢": 1139,
      "口": 1140,
      "古": 1141,
      "句": 1142,
      "另": 1143,
      "叨": 1144,
      "叩": 1145,
      "只": 1146,
      "叫": 1147,
      "召": 1148,
      "叭": 1149,
      "叮": 1150,
      "可": 1151,
      "台": 1152,
      "叱": 1153,
      "史": 1154,
      "右": 1155,
      "叵": 1156,
      "叶": 1157,
      "号": 1158,
      "司": 1159,
      "叹": 1160,
      "叻": 1161,
      "叼": 1162,
      "叽": 1163,
      "吁": 1164,
      "吃": 1165,
      "各": 1166,
      "吆": 1167,
      "合": 1168,
      "吉": 1169,
      "吊": 1170,
      "吋": 1171,
      "同": 1172,
      "名": 1173,
      "后": 1174,
      "吏": 1175,
      "吐": 1176,
      "向": 1177,
      "吒": 1178,
      "吓": 1179,
      "吔": 1180,
      "吕": 1181,
      "吖": 1182,
      "吗": 1183,
      "吚": 1184,
      "君": 1185,
      "吝": 1186,
      "吞": 1187,
      "吟": 1188,
      "吠": 1189,
      "吡": 1190,
      "吥": 1191,
      "否": 1192,
      "吧": 1193,
      "吨": 1194,
      "吩": 1195,
      "含": 1196,
      "听": 1197,
      "吭": 1198,
      "吮": 1199,
      "启": 1200,
      "吱": 1201,
      "吲": 1202,
      "吴": 1203,
      "吵": 1204,
      "吶": 1205,
      "吸": 1206,
      "吹": 1207,
      "吻": 1208,
      "吼": 1209,
      "吾": 1210,
      "呀": 1211,
      "呃": 1212,
      "呆": 1213,
      "呈": 1214,
      "告": 1215,
      "呋": 1216,
      "呎": 1217,
      "呐": 1218,
      "呑": 1219,
      "呒": 1220,
      "呓": 1221,
      "呔": 1222,
      "呕": 1223,
      "呖": 1224,
      "呗": 1225,
      "员": 1226,
      "呛": 1227,
      "呜": 1228,
      "呢": 1229,
      "呣": 1230,
      "呤": 1231,
      "呦": 1232,
      "周": 1233,
      "呯": 1234,
      "呱": 1235,
      "呲": 1236,
      "味": 1237,
      "呵": 1238,
      "呶": 1239,
      "呷": 1240,
      "呸": 1241,
      "呻": 1242,
      "呼": 1243,
      "命": 1244,
      "呿": 1245,
      "咀": 1246,
      "咁": 1247,
      "咂": 1248,
      "咄": 1249,
      "咆": 1250,
      "咋": 1251,
      "和": 1252,
      "咎": 1253,
      "咏": 1254,
      "咐": 1255,
      "咒": 1256,
      "咔": 1257,
      "咕": 1258,
      "咖": 1259,
      "咗": 1260,
      "咘": 1261,
      "咙": 1262,
      "咚": 1263,
      "咛": 1264,
      "咝": 1265,
      "咡": 1266,
      "咣": 1267,
      "咤": 1268,
      "咥": 1269,
      "咦": 1270,
      "咧": 1271,
      "咨": 1272,
      "咩": 1273,
      "咪": 1274,
      "咫": 1275,
      "咬": 1276,
      "咭": 1277,
      "咯": 1278,
      "咱": 1279,
      "咲": 1280,
      "咳": 1281,
      "咴": 1282,
      "咵": 1283,
      "咷": 1284,
      "咸": 1285,
      "咹": 1286,
      "咻": 1287,
      "咽": 1288,
      "咾": 1289,
      "咿": 1290,
      "哀": 1291,
      "品": 1292,
      "哂": 1293,
      "哄": 1294,
      "哆": 1295,
      "哇": 1296,
      "哈": 1297,
      "哉": 1298,
      "哋": 1299,
      "响": 1300,
      "哎": 1301,
      "哏": 1302,
      "哐": 1303,
      "哑": 1304,
      "哒": 1305,
      "哓": 1306,
      "哔": 1307,
      "哕": 1308,
      "哗": 1309,
      "哙": 1310,
      "哚": 1311,
      "哝": 1312,
      "哞": 1313,
      "哟": 1314,
      "員": 1315,
      "哥": 1316,
      "哦": 1317,
      "哧": 1318,
      "哨": 1319,
      "哩": 1320,
      "哪": 1321,
      "哭": 1322,
      "哮": 1323,
      "哲": 1324,
      "哳": 1325,
      "哺": 1326,
      "哼": 1327,
      "哽": 1328,
      "哿": 1329,
      "唁": 1330,
      "唆": 1331,
      "唇": 1332,
      "唉": 1333,
      "唏": 1334,
      "唐": 1335,
      "唑": 1336,
      "唒": 1337,
      "唔": 1338,
      "唗": 1339,
      "唛": 1340,
      "唝": 1341,
      "唠": 1342,
      "唡": 1343,
      "唢": 1344,
      "唤": 1345,
      "唦": 1346,
      "唧": 1347,
      "唬": 1348,
      "售": 1349,
      "唯": 1350,
      "唰": 1351,
      "唱": 1352,
      "唳": 1353,
      "唵": 1354,
      "唷": 1355,
      "唸": 1356,
      "唻": 1357,
      "唼": 1358,
      "唾": 1359,
      "唿": 1360,
      "啁": 1361,
      "啃": 1362,
      "啄": 1363,
      "商": 1364,
      "啉": 1365,
      "啊": 1366,
      "啌": 1367,
      "問": 1368,
      "啐": 1369,
      "啕": 1370,
      "啖": 1371,
      "啜": 1372,
      "啡": 1373,
      "啤": 1374,
      "啥": 1375,
      "啦": 1376,
      "啧": 1377,
      "啪": 1378,
      "啫": 1379,
      "啬": 1380,
      "啭": 1381,
      "啮": 1382,
      "啰": 1383,
      "啵": 1384,
      "啶": 1385,
      "啷": 1386,
      "啸": 1387,
      "啻": 1388,
      "啼": 1389,
      "啾": 1390,
      "喀": 1391,
      "喁": 1392,
      "喂": 1393,
      "喃": 1394,
      "善": 1395,
      "喆": 1396,
      "喇": 1397,
      "喈": 1398,
      "喉": 1399,
      "喊": 1400,
      "喋": 1401,
      "喎": 1402,
      "喏": 1403,
      "喑": 1404,
      "喔": 1405,
      "喘": 1406,
      "喙": 1407,
      "喚": 1408,
      "喜": 1409,
      "喝": 1410,
      "喟": 1411,
      "喦": 1412,
      "喧": 1413,
      "喬": 1414,
      "單": 1415,
      "喰": 1416,
      "喱": 1417,
      "喲": 1418,
      "喳": 1419,
      "喵": 1420,
      "喷": 1421,
      "喹": 1422,
      "喻": 1423,
      "喽": 1424,
      "喾": 1425,
      "嗄": 1426,
      "嗅": 1427,
      "嗉": 1428,
      "嗌": 1429,
      "嗍": 1430,
      "嗎": 1431,
      "嗐": 1432,
      "嗑": 1433,
      "嗒": 1434,
      "嗓": 1435,
      "嗔": 1436,
      "嗖": 1437,
      "嗙": 1438,
      "嗜": 1439,
      "嗝": 1440,
      "嗞": 1441,
      "嗟": 1442,
      "嗡": 1443,
      "嗣": 1444,
      "嗤": 1445,
      "嗥": 1446,
      "嗦": 1447,
      "嗨": 1448,
      "嗪": 1449,
      "嗫": 1450,
      "嗬": 1451,
      "嗮": 1452,
      "嗯": 1453,
      "嗲": 1454,
      "嗳": 1455,
      "嗵": 1456,
      "嗷": 1457,
      "嗽": 1458,
      "嘀": 1459,
      "嘁": 1460,
      "嘈": 1461,
      "嘉": 1462,
      "嘌": 1463,
      "嘎": 1464,
      "嘏": 1465,
      "嘓": 1466,
      "嘘": 1467,
      "嘚": 1468,
      "嘛": 1469,
      "嘞": 1470,
      "嘟": 1471,
      "嘡": 1472,
      "嘢": 1473,
      "嘣": 1474,
      "嘤": 1475,
      "嘧": 1476,
      "嘬": 1477,
      "嘭": 1478,
      "嘱": 1479,
      "嘲": 1480,
      "嘴": 1481,
      "嘶": 1482,
      "嘹": 1483,
      "嘻": 1484,
      "嘿": 1485,
      "噁": 1486,
      "噌": 1487,
      "噍": 1488,
      "噎": 1489,
      "噏": 1490,
      "噓": 1491,
      "噔": 1492,
      "噗": 1493,
      "噘": 1494,
      "噙": 1495,
      "噜": 1496,
      "噢": 1497,
      "噤": 1498,
      "器": 1499,
      "噩": 1500,
      "噪": 1501,
      "噫": 1502,
      "噬": 1503,
      "噭": 1504,
      "噱": 1505,
      "噴": 1506,
      "噶": 1507,
      "噹": 1508,
      "噻": 1509,
      "噼": 1510,
      "嚄": 1511,
      "嚅": 1512,
      "嚇": 1513,
      "嚎": 1514,
      "嚏": 1515,
      "嚐": 1516,
      "嚒": 1517,
      "嚓": 1518,
      "嚕": 1519,
      "嚣": 1520,
      "嚭": 1521,
      "嚯": 1522,
      "嚱": 1523,
      "嚲": 1524,
      "嚴": 1525,
      "嚷": 1526,
      "嚼": 1527,
      "囀": 1528,
      "囉": 1529,
      "囊": 1530,
      "囍": 1531,
      "囐": 1532,
      "囔": 1533,
      "囗": 1534,
      "囚": 1535,
      "四": 1536,
      "囝": 1537,
      "回": 1538,
      "囟": 1539,
      "因": 1540,
      "囡": 1541,
      "团": 1542,
      "囤": 1543,
      "囧": 1544,
      "囫": 1545,
      "园": 1546,
      "囯": 1547,
      "困": 1548,
      "囱": 1549,
      "围": 1550,
      "囵": 1551,
      "囹": 1552,
      "固": 1553,
      "国": 1554,
      "图": 1555,
      "囿": 1556,
      "圃": 1557,
      "圄": 1558,
      "圆": 1559,
      "圈": 1560,
      "圉": 1561,
      "圊": 1562,
      "國": 1563,
      "圍": 1564,
      "圏": 1565,
      "園": 1566,
      "圓": 1567,
      "圖": 1568,
      "團": 1569,
      "圜": 1570,
      "土": 1571,
      "圣": 1572,
      "在": 1573,
      "圩": 1574,
      "圪": 1575,
      "圬": 1576,
      "圭": 1577,
      "圮": 1578,
      "圯": 1579,
      "地": 1580,
      "圳": 1581,
      "圹": 1582,
      "场": 1583,
      "圻": 1584,
      "圾": 1585,
      "址": 1586,
      "坂": 1587,
      "均": 1588,
      "坊": 1589,
      "坌": 1590,
      "坍": 1591,
      "坎": 1592,
      "坏": 1593,
      "坐": 1594,
      "坑": 1595,
      "块": 1596,
      "坚": 1597,
      "坛": 1598,
      "坜": 1599,
      "坝": 1600,
      "坞": 1601,
      "坟": 1602,
      "坠": 1603,
      "坡": 1604,
      "坤": 1605,
      "坦": 1606,
      "坨": 1607,
      "坩": 1608,
      "坪": 1609,
      "坯": 1610,
      "坳": 1611,
      "坷": 1612,
      "坻": 1613,
      "坼": 1614,
      "垂": 1615,
      "垃": 1616,
      "垄": 1617,
      "垅": 1618,
      "垆": 1619,
      "垉": 1620,
      "型": 1621,
      "垌": 1622,
      "垍": 1623,
      "垒": 1624,
      "垓": 1625,
      "垚": 1626,
      "垛": 1627,
      "垝": 1628,
      "垟": 1629,
      "垠": 1630,
      "垡": 1631,
      "垢": 1632,
      "垣": 1633,
      "垤": 1634,
      "垦": 1635,
      "垧": 1636,
      "垩": 1637,
      "垫": 1638,
      "垭": 1639,
      "垮": 1640,
      "垴": 1641,
      "垸": 1642,
      "埂": 1643,
      "埃": 1644,
      "埇": 1645,
      "埋": 1646,
      "城": 1647,
      "埒": 1648,
      "埔": 1649,
      "埘": 1650,
      "埙": 1651,
      "埚": 1652,
      "埝": 1653,
      "域": 1654,
      "埠": 1655,
      "埤": 1656,
      "埭": 1657,
      "埳": 1658,
      "埶": 1659,
      "埸": 1660,
      "培": 1661,
      "基": 1662,
      "埼": 1663,
      "埽": 1664,
      "堂": 1665,
      "堅": 1666,
      "堆": 1667,
      "堇": 1668,
      "堉": 1669,
      "堌": 1670,
      "堍": 1671,
      "堑": 1672,
      "堕": 1673,
      "堙": 1674,
      "堞": 1675,
      "堠": 1676,
      "堡": 1677,
      "堤": 1678,
      "堪": 1679,
      "堰": 1680,
      "報": 1681,
      "場": 1682,
      "堵": 1683,
      "塁": 1684,
      "塆": 1685,
      "塊": 1686,
      "塌": 1687,
      "塍": 1688,
      "塑": 1689,
      "塔": 1690,
      "塘": 1691,
      "塚": 1692,
      "塞": 1693,
      "填": 1694,
      "塬": 1695,
      "塯": 1696,
      "塵": 1697,
      "塽": 1698,
      "塾": 1699,
      "墀": 1700,
      "墁": 1701,
      "境": 1702,
      "墅": 1703,
      "墉": 1704,
      "墊": 1705,
      "墎": 1706,
      "墒": 1707,
      "墓": 1708,
      "増": 1709,
      "墘": 1710,
      "墙": 1711,
      "墚": 1712,
      "增": 1713,
      "墟": 1714,
      "墨": 1715,
      "墩": 1716,
      "墫": 1717,
      "墼": 1718,
      "壁": 1719,
      "壅": 1720,
      "壇": 1721,
      "壌": 1722,
      "壑": 1723,
      "壕": 1724,
      "壖": 1725,
      "壞": 1726,
      "壤": 1727,
      "士": 1728,
      "壬": 1729,
      "壮": 1730,
      "壯": 1731,
      "声": 1732,
      "壳": 1733,
      "壶": 1734,
      "壸": 1735,
      "壹": 1736,
      "处": 1737,
      "备": 1738,
      "変": 1739,
      "复": 1740,
      "夏": 1741,
      "夔": 1742,
      "夕": 1743,
      "外": 1744,
      "夙": 1745,
      "多": 1746,
      "夜": 1747,
      "够": 1748,
      "夠": 1749,
      "夢": 1750,
      "夤": 1751,
      "夥": 1752,
      "大": 1753,
      "天": 1754,
      "太": 1755,
      "夫": 1756,
      "夬": 1757,
      "夭": 1758,
      "央": 1759,
      "夯": 1760,
      "失": 1761,
      "头": 1762,
      "夷": 1763,
      "夸": 1764,
      "夹": 1765,
      "夺": 1766,
      "夾": 1767,
      "奁": 1768,
      "奂": 1769,
      "奄": 1770,
      "奇": 1771,
      "奈": 1772,
      "奉": 1773,
      "奋": 1774,
      "奎": 1775,
      "奏": 1776,
      "契": 1777,
      "奓": 1778,
      "奔": 1779,
      "奕": 1780,
      "奖": 1781,
      "套": 1782,
      "奘": 1783,
      "奚": 1784,
      "奠": 1785,
      "奢": 1786,
      "奥": 1787,
      "奪": 1788,
      "奭": 1789,
      "奮": 1790,
      "女": 1791,
      "奴": 1792,
      "奶": 1793,
      "奸": 1794,
      "她": 1795,
      "奻": 1796,
      "好": 1797,
      "妁": 1798,
      "如": 1799,
      "妃": 1800,
      "妄": 1801,
      "妆": 1802,
      "妇": 1803,
      "妈": 1804,
      "妊": 1805,
      "妍": 1806,
      "妒": 1807,
      "妓": 1808,
      "妖": 1809,
      "妗": 1810,
      "妙": 1811,
      "妞": 1812,
      "妣": 1813,
      "妤": 1814,
      "妥": 1815,
      "妨": 1816,
      "妩": 1817,
      "妪": 1818,
      "妫": 1819,
      "妮": 1820,
      "妯": 1821,
      "妲": 1822,
      "妳": 1823,
      "妸": 1824,
      "妹": 1825,
      "妺": 1826,
      "妻": 1827,
      "妾": 1828,
      "姆": 1829,
      "姊": 1830,
      "始": 1831,
      "姐": 1832,
      "姑": 1833,
      "姒": 1834,
      "姓": 1835,
      "委": 1836,
      "姗": 1837,
      "姘": 1838,
      "姚": 1839,
      "姜": 1840,
      "姝": 1841,
      "姞": 1842,
      "姟": 1843,
      "姣": 1844,
      "姥": 1845,
      "姨": 1846,
      "姬": 1847,
      "姮": 1848,
      "姳": 1849,
      "姹": 1850,
      "姻": 1851,
      "姽": 1852,
      "姿": 1853,
      "威": 1854,
      "娃": 1855,
      "娄": 1856,
      "娅": 1857,
      "娆": 1858,
      "娇": 1859,
      "娈": 1860,
      "娉": 1861,
      "娌": 1862,
      "娑": 1863,
      "娓": 1864,
      "娘": 1865,
      "娜": 1866,
      "娟": 1867,
      "娠": 1868,
      "娡": 1869,
      "娣": 1870,
      "娥": 1871,
      "娩": 1872,
      "娱": 1873,
      "娲": 1874,
      "娴": 1875,
      "娶": 1876,
      "娼": 1877,
      "婀": 1878,
      "婆": 1879,
      "婉": 1880,
      "婊": 1881,
      "婕": 1882,
      "婚": 1883,
      "婞": 1884,
      "婢": 1885,
      "婥": 1886,
      "婦": 1887,
      "婧": 1888,
      "婪": 1889,
      "婳": 1890,
      "婴": 1891,
      "婵": 1892,
      "婶": 1893,
      "婷": 1894,
      "婺": 1895,
      "婻": 1896,
      "婿": 1897,
      "媒": 1898,
      "媚": 1899,
      "媛": 1900,
      "媪": 1901,
      "媲": 1902,
      "媳": 1903,
      "媵": 1904,
      "媷": 1905,
      "媸": 1906,
      "媽": 1907,
      "媾": 1908,
      "嫁": 1909,
      "嫂": 1910,
      "嫄": 1911,
      "嫉": 1912,
      "嫋": 1913,
      "嫌": 1914,
      "嫐": 1915,
      "嫒": 1916,
      "嫔": 1917,
      "嫖": 1918,
      "嫘": 1919,
      "嫚": 1920,
      "嫠": 1921,
      "嫡": 1922,
      "嫣": 1923,
      "嫦": 1924,
      "嫩": 1925,
      "嫪": 1926,
      "嫫": 1927,
      "嫰": 1928,
      "嫱": 1929,
      "嫲": 1930,
      "嬅": 1931,
      "嬉": 1932,
      "嬖": 1933,
      "嬗": 1934,
      "嬛": 1935,
      "嬰": 1936,
      "嬲": 1937,
      "嬴": 1938,
      "嬷": 1939,
      "嬿": 1940,
      "孀": 1941,
      "子": 1942,
      "孑": 1943,
      "孒": 1944,
      "孓": 1945,
      "孔": 1946,
      "孕": 1947,
      "字": 1948,
      "存": 1949,
      "孙": 1950,
      "孚": 1951,
      "孛": 1952,
      "孜": 1953,
      "孝": 1954,
      "孟": 1955,
      "孢": 1956,
      "季": 1957,
      "孤": 1958,
      "孥": 1959,
      "学": 1960,
      "孩": 1961,
      "孪": 1962,
      "孫": 1963,
      "孬": 1964,
      "孰": 1965,
      "孱": 1966,
      "孳": 1967,
      "孵": 1968,
      "學": 1969,
      "孺": 1970,
      "孽": 1971,
      "孿": 1972,
      "宀": 1973,
      "宁": 1974,
      "它": 1975,
      "宄": 1976,
      "宅": 1977,
      "宇": 1978,
      "守": 1979,
      "安": 1980,
      "宋": 1981,
      "完": 1982,
      "宏": 1983,
      "宓": 1984,
      "宕": 1985,
      "宗": 1986,
      "官": 1987,
      "宙": 1988,
      "定": 1989,
      "宛": 1990,
      "宜": 1991,
      "宝": 1992,
      "实": 1993,
      "宠": 1994,
      "审": 1995,
      "客": 1996,
      "宣": 1997,
      "室": 1998,
      "宥": 1999,
      "宦": 2000,
      "宪": 2001,
      "宫": 2002,
      "宬": 2003,
      "宰": 2004,
      "害": 2005,
      "宴": 2006,
      "宵": 2007,
      "家": 2008,
      "宸": 2009,
      "容": 2010,
      "宽": 2011,
      "宾": 2012,
      "宿": 2013,
      "寂": 2014,
      "寄": 2015,
      "寅": 2016,
      "密": 2017,
      "寇": 2018,
      "富": 2019,
      "寐": 2020,
      "寒": 2021,
      "寓": 2022,
      "寔": 2023,
      "寝": 2024,
      "寞": 2025,
      "察": 2026,
      "寡": 2027,
      "寤": 2028,
      "寥": 2029,
      "實": 2030,
      "寧": 2031,
      "寨": 2032,
      "寫": 2033,
      "寮": 2034,
      "寰": 2035,
      "寶": 2036,
      "寸": 2037,
      "对": 2038,
      "寺": 2039,
      "寻": 2040,
      "导": 2041,
      "寿": 2042,
      "封": 2043,
      "射": 2044,
      "将": 2045,
      "將": 2046,
      "專": 2047,
      "尉": 2048,
      "尊": 2049,
      "尋": 2050,
      "對": 2051,
      "小": 2052,
      "少": 2053,
      "尓": 2054,
      "尔": 2055,
      "尕": 2056,
      "尖": 2057,
      "尘": 2058,
      "尚": 2059,
      "尜": 2060,
      "尝": 2061,
      "尢": 2062,
      "尤": 2063,
      "尥": 2064,
      "尧": 2065,
      "尪": 2066,
      "尬": 2067,
      "就": 2068,
      "尴": 2069,
      "尷": 2070,
      "尸": 2071,
      "尹": 2072,
      "尺": 2073,
      "尻": 2074,
      "尼": 2075,
      "尽": 2076,
      "尾": 2077,
      "尿": 2078,
      "局": 2079,
      "屁": 2080,
      "层": 2081,
      "屃": 2082,
      "屄": 2083,
      "居": 2084,
      "屈": 2085,
      "屉": 2086,
      "届": 2087,
      "屋": 2088,
      "屌": 2089,
      "屎": 2090,
      "屏": 2091,
      "屐": 2092,
      "屑": 2093,
      "展": 2094,
      "屙": 2095,
      "屛": 2096,
      "属": 2097,
      "屠": 2098,
      "屡": 2099,
      "屣": 2100,
      "層": 2101,
      "履": 2102,
      "屦": 2103,
      "屮": 2104,
      "屯": 2105,
      "山": 2106,
      "屹": 2107,
      "屿": 2108,
      "岀": 2109,
      "岁": 2110,
      "岂": 2111,
      "岈": 2112,
      "岌": 2113,
      "岐": 2114,
      "岑": 2115,
      "岔": 2116,
      "岖": 2117,
      "岗": 2118,
      "岘": 2119,
      "岙": 2120,
      "岚": 2121,
      "岛": 2122,
      "岜": 2123,
      "岢": 2124,
      "岨": 2125,
      "岩": 2126,
      "岫": 2127,
      "岬": 2128,
      "岭": 2129,
      "岱": 2130,
      "岳": 2131,
      "岷": 2132,
      "岸": 2133,
      "岿": 2134,
      "峁": 2135,
      "峄": 2136,
      "峋": 2137,
      "峒": 2138,
      "峙": 2139,
      "峡": 2140,
      "峣": 2141,
      "峤": 2142,
      "峥": 2143,
      "峦": 2144,
      "峨": 2145,
      "峪": 2146,
      "峭": 2147,
      "峯": 2148,
      "峰": 2149,
      "峻": 2150,
      "崀": 2151,
      "崂": 2152,
      "崃": 2153,
      "崆": 2154,
      "崇": 2155,
      "崎": 2156,
      "崐": 2157,
      "崑": 2158,
      "崔": 2159,
      "崖": 2160,
      "崛": 2161,
      "崤": 2162,
      "崦": 2163,
      "崧": 2164,
      "崩": 2165,
      "崭": 2166,
      "崮": 2167,
      "崴": 2168,
      "崽": 2169,
      "崾": 2170,
      "嵁": 2171,
      "嵇": 2172,
      "嵊": 2173,
      "嵋": 2174,
      "嵌": 2175,
      "嵘": 2176,
      "嵛": 2177,
      "嵩": 2178,
      "嵫": 2179,
      "嵬": 2180,
      "嵯": 2181,
      "嵴": 2182,
      "嶂": 2183,
      "嶒": 2184,
      "嶙": 2185,
      "嶷": 2186,
      "巅": 2187,
      "巉": 2188,
      "巍": 2189,
      "巘": 2190,
      "川": 2191,
      "州": 2192,
      "巡": 2193,
      "巢": 2194,
      "工": 2195,
      "左": 2196,
      "巧": 2197,
      "巨": 2198,
      "巩": 2199,
      "巫": 2200,
      "差": 2201,
      "巯": 2202,
      "己": 2203,
      "已": 2204,
      "巳": 2205,
      "巴": 2206,
      "巷": 2207,
      "巻": 2208,
      "巽": 2209,
      "巾": 2210,
      "巿": 2211,
      "币": 2212,
      "市": 2213,
      "布": 2214,
      "帅": 2215,
      "帆": 2216,
      "师": 2217,
      "希": 2218,
      "帏": 2219,
      "帐": 2220,
      "帑": 2221,
      "帔": 2222,
      "帕": 2223,
      "帖": 2224,
      "帘": 2225,
      "帙": 2226,
      "帚": 2227,
      "帛": 2228,
      "帜": 2229,
      "帝": 2230,
      "带": 2231,
      "帧": 2232,
      "師": 2233,
      "席": 2234,
      "帮": 2235,
      "帯": 2236,
      "帶": 2237,
      "帷": 2238,
      "常": 2239,
      "帼": 2240,
      "帽": 2241,
      "幂": 2242,
      "幄": 2243,
      "幅": 2244,
      "幌": 2245,
      "幍": 2246,
      "幔": 2247,
      "幕": 2248,
      "幛": 2249,
      "幞": 2250,
      "幡": 2251,
      "幢": 2252,
      "幫": 2253,
      "干": 2254,
      "平": 2255,
      "年": 2256,
      "幵": 2257,
      "并": 2258,
      "幷": 2259,
      "幸": 2260,
      "幹": 2261,
      "幺": 2262,
      "幻": 2263,
      "幼": 2264,
      "幽": 2265,
      "幾": 2266,
      "广": 2267,
      "庀": 2268,
      "庄": 2269,
      "庆": 2270,
      "庇": 2271,
      "床": 2272,
      "序": 2273,
      "庐": 2274,
      "庑": 2275,
      "库": 2276,
      "应": 2277,
      "底": 2278,
      "庖": 2279,
      "店": 2280,
      "庙": 2281,
      "庚": 2282,
      "府": 2283,
      "庞": 2284,
      "废": 2285,
      "庠": 2286,
      "庥": 2287,
      "度": 2288,
      "座": 2289,
      "庭": 2290,
      "庳": 2291,
      "庵": 2292,
      "庶": 2293,
      "康": 2294,
      "庸": 2295,
      "庹": 2296,
      "庾": 2297,
      "廂": 2298,
      "廉": 2299,
      "廊": 2300,
      "廋": 2301,
      "廑": 2302,
      "廒": 2303,
      "廓": 2304,
      "廕": 2305,
      "廖": 2306,
      "廙": 2307,
      "廚": 2308,
      "廛": 2309,
      "廪": 2310,
      "廵": 2311,
      "延": 2312,
      "廷": 2313,
      "建": 2314,
      "廿": 2315,
      "开": 2316,
      "弁": 2317,
      "异": 2318,
      "弃": 2319,
      "弄": 2320,
      "弈": 2321,
      "弊": 2322,
      "弋": 2323,
      "式": 2324,
      "弑": 2325,
      "弓": 2326,
      "引": 2327,
      "弗": 2328,
      "弘": 2329,
      "弛": 2330,
      "弟": 2331,
      "张": 2332,
      "弢": 2333,
      "弥": 2334,
      "弦": 2335,
      "弧": 2336,
      "弩": 2337,
      "弭": 2338,
      "弯": 2339,
      "弱": 2340,
      "張": 2341,
      "弶": 2342,
      "強": 2343,
      "弹": 2344,
      "强": 2345,
      "弼": 2346,
      "彀": 2347,
      "彈": 2348,
      "彊": 2349,
      "彌": 2350,
      "彎": 2351,
      "归": 2352,
      "当": 2353,
      "录": 2354,
      "彖": 2355,
      "彗": 2356,
      "彘": 2357,
      "彝": 2358,
      "形": 2359,
      "彤": 2360,
      "彦": 2361,
      "彧": 2362,
      "彩": 2363,
      "彪": 2364,
      "彬": 2365,
      "彭": 2366,
      "彰": 2367,
      "影": 2368,
      "彳": 2369,
      "彷": 2370,
      "役": 2371,
      "彻": 2372,
      "彼": 2373,
      "往": 2374,
      "征": 2375,
      "徂": 2376,
      "径": 2377,
      "待": 2378,
      "徇": 2379,
      "很": 2380,
      "徉": 2381,
      "徊": 2382,
      "律": 2383,
      "後": 2384,
      "徐": 2385,
      "徒": 2386,
      "徕": 2387,
      "得": 2388,
      "徘": 2389,
      "徙": 2390,
      "徜": 2391,
      "從": 2392,
      "御": 2393,
      "徨": 2394,
      "復": 2395,
      "循": 2396,
      "徭": 2397,
      "微": 2398,
      "徳": 2399,
      "徵": 2400,
      "德": 2401,
      "徹": 2402,
      "徼": 2403,
      "徽": 2404,
      "心": 2405,
      "忄": 2406,
      "必": 2407,
      "忆": 2408,
      "忌": 2409,
      "忍": 2410,
      "忏": 2411,
      "忐": 2412,
      "忑": 2413,
      "忒": 2414,
      "忖": 2415,
      "志": 2416,
      "忘": 2417,
      "忙": 2418,
      "忝": 2419,
      "忠": 2420,
      "忡": 2421,
      "忤": 2422,
      "忧": 2423,
      "忪": 2424,
      "快": 2425,
      "忭": 2426,
      "忮": 2427,
      "忱": 2428,
      "念": 2429,
      "忸": 2430,
      "忻": 2431,
      "忽": 2432,
      "忾": 2433,
      "忿": 2434,
      "怀": 2435,
      "态": 2436,
      "怂": 2437,
      "怃": 2438,
      "怄": 2439,
      "怅": 2440,
      "怆": 2441,
      "怍": 2442,
      "怎": 2443,
      "怏": 2444,
      "怒": 2445,
      "怔": 2446,
      "怕": 2447,
      "怖": 2448,
      "怙": 2449,
      "怜": 2450,
      "思": 2451,
      "怠": 2452,
      "怡": 2453,
      "急": 2454,
      "怦": 2455,
      "性": 2456,
      "怨": 2457,
      "怩": 2458,
      "怪": 2459,
      "怫": 2460,
      "怮": 2461,
      "怯": 2462,
      "怵": 2463,
      "总": 2464,
      "怼": 2465,
      "怿": 2466,
      "恁": 2467,
      "恂": 2468,
      "恃": 2469,
      "恋": 2470,
      "恍": 2471,
      "恐": 2472,
      "恒": 2473,
      "恕": 2474,
      "恙": 2475,
      "恚": 2476,
      "恢": 2477,
      "恣": 2478,
      "恤": 2479,
      "恨": 2480,
      "恩": 2481,
      "恪": 2482,
      "恫": 2483,
      "恬": 2484,
      "恭": 2485,
      "息": 2486,
      "恰": 2487,
      "恳": 2488,
      "恵": 2489,
      "恶": 2490,
      "恸": 2491,
      "恹": 2492,
      "恺": 2493,
      "恻": 2494,
      "恼": 2495,
      "恽": 2496,
      "恿": 2497,
      "悃": 2498,
      "悄": 2499,
      "悅": 2500,
      "悉": 2501,
      "悌": 2502,
      "悍": 2503,
      "悒": 2504,
      "悔": 2505,
      "悖": 2506,
      "悚": 2507,
      "悛": 2508,
      "悝": 2509,
      "悟": 2510,
      "悠": 2511,
      "悢": 2512,
      "患": 2513,
      "悦": 2514,
      "您": 2515,
      "悫": 2516,
      "悬": 2517,
      "悭": 2518,
      "悮": 2519,
      "悯": 2520,
      "悱": 2521,
      "悲": 2522,
      "悴": 2523,
      "悶": 2524,
      "悸": 2525,
      "悻": 2526,
      "悼": 2527,
      "悽": 2528,
      "情": 2529,
      "惆": 2530,
      "惇": 2531,
      "惊": 2532,
      "惋": 2533,
      "惑": 2534,
      "惓": 2535,
      "惕": 2536,
      "惗": 2537,
      "惘": 2538,
      "惚": 2539,
      "惛": 2540,
      "惜": 2541,
      "惝": 2542,
      "惟": 2543,
      "惠": 2544,
      "惡": 2545,
      "惦": 2546,
      "惧": 2547,
      "惨": 2548,
      "惩": 2549,
      "惫": 2550,
      "惬": 2551,
      "惭": 2552,
      "惮": 2553,
      "惯": 2554,
      "惰": 2555,
      "惱": 2556,
      "想": 2557,
      "惴": 2558,
      "惶": 2559,
      "惹": 2560,
      "惺": 2561,
      "愀": 2562,
      "愁": 2563,
      "愄": 2564,
      "愆": 2565,
      "愈": 2566,
      "愉": 2567,
      "愋": 2568,
      "愍": 2569,
      "愎": 2570,
      "意": 2571,
      "愔": 2572,
      "愕": 2573,
      "愚": 2574,
      "愛": 2575,
      "感": 2576,
      "愠": 2577,
      "愣": 2578,
      "愤": 2579,
      "愦": 2580,
      "愧": 2581,
      "愫": 2582,
      "愿": 2583,
      "慄": 2584,
      "慅": 2585,
      "慈": 2586,
      "慌": 2587,
      "慎": 2588,
      "慑": 2589,
      "慓": 2590,
      "慕": 2591,
      "慘": 2592,
      "慜": 2593,
      "慢": 2594,
      "慣": 2595,
      "慥": 2596,
      "慧": 2597,
      "慨": 2598,
      "慮": 2599,
      "慰": 2600,
      "慵": 2601,
      "慶": 2602,
      "慷": 2603,
      "憂": 2604,
      "憋": 2605,
      "憎": 2606,
      "憔": 2607,
      "憙": 2608,
      "憧": 2609,
      "憨": 2610,
      "憩": 2611,
      "憬": 2612,
      "憷": 2613,
      "憾": 2614,
      "懂": 2615,
      "懆": 2616,
      "懈": 2617,
      "應": 2618,
      "懊": 2619,
      "懋": 2620,
      "懑": 2621,
      "懒": 2622,
      "懔": 2623,
      "懦": 2624,
      "懮": 2625,
      "懰": 2626,
      "懲": 2627,
      "懵": 2628,
      "懶": 2629,
      "懽": 2630,
      "懾": 2631,
      "懿": 2632,
      "戆": 2633,
      "戈": 2634,
      "戊": 2635,
      "戌": 2636,
      "戍": 2637,
      "戎": 2638,
      "戏": 2639,
      "成": 2640,
      "我": 2641,
      "戒": 2642,
      "戓": 2643,
      "戕": 2644,
      "或": 2645,
      "戗": 2646,
      "战": 2647,
      "戚": 2648,
      "戛": 2649,
      "戟": 2650,
      "戡": 2651,
      "戣": 2652,
      "戥": 2653,
      "截": 2654,
      "戬": 2655,
      "戮": 2656,
      "戰": 2657,
      "戲": 2658,
      "戳": 2659,
      "戴": 2660,
      "戶": 2661,
      "户": 2662,
      "戽": 2663,
      "戾": 2664,
      "房": 2665,
      "所": 2666,
      "扁": 2667,
      "扃": 2668,
      "扇": 2669,
      "扈": 2670,
      "扉": 2671,
      "手": 2672,
      "扌": 2673,
      "才": 2674,
      "扎": 2675,
      "扑": 2676,
      "扒": 2677,
      "打": 2678,
      "扔": 2679,
      "托": 2680,
      "扛": 2681,
      "扞": 2682,
      "扠": 2683,
      "扣": 2684,
      "扥": 2685,
      "扦": 2686,
      "执": 2687,
      "扨": 2688,
      "扩": 2689,
      "扪": 2690,
      "扫": 2691,
      "扬": 2692,
      "扭": 2693,
      "扮": 2694,
      "扯": 2695,
      "扰": 2696,
      "扱": 2697,
      "扳": 2698,
      "扶": 2699,
      "批": 2700,
      "扼": 2701,
      "扽": 2702,
      "找": 2703,
      "承": 2704,
      "技": 2705,
      "抃": 2706,
      "抄": 2707,
      "抉": 2708,
      "把": 2709,
      "抑": 2710,
      "抒": 2711,
      "抓": 2712,
      "抔": 2713,
      "投": 2714,
      "抖": 2715,
      "抗": 2716,
      "折": 2717,
      "抚": 2718,
      "抛": 2719,
      "抟": 2720,
      "抠": 2721,
      "抡": 2722,
      "抢": 2723,
      "护": 2724,
      "报": 2725,
      "抨": 2726,
      "披": 2727,
      "抬": 2728,
      "抱": 2729,
      "抵": 2730,
      "抹": 2731,
      "抺": 2732,
      "抻": 2733,
      "押": 2734,
      "抽": 2735,
      "抿": 2736,
      "拂": 2737,
      "拃": 2738,
      "拄": 2739,
      "担": 2740,
      "拆": 2741,
      "拇": 2742,
      "拈": 2743,
      "拉": 2744,
      "拊": 2745,
      "拋": 2746,
      "拌": 2747,
      "拍": 2748,
      "拎": 2749,
      "拏": 2750,
      "拐": 2751,
      "拑": 2752,
      "拒": 2753,
      "拓": 2754,
      "拔": 2755,
      "拖": 2756,
      "拗": 2757,
      "拘": 2758,
      "拙": 2759,
      "拚": 2760,
      "招": 2761,
      "拜": 2762,
      "拟": 2763,
      "拢": 2764,
      "拣": 2765,
      "拤": 2766,
      "拥": 2767,
      "拦": 2768,
      "拧": 2769,
      "拨": 2770,
      "择": 2771,
      "拫": 2772,
      "括": 2773,
      "拭": 2774,
      "拮": 2775,
      "拯": 2776,
      "拱": 2777,
      "拳": 2778,
      "拴": 2779,
      "拷": 2780,
      "拼": 2781,
      "拽": 2782,
      "拾": 2783,
      "拿": 2784,
      "持": 2785,
      "挂": 2786,
      "指": 2787,
      "挈": 2788,
      "按": 2789,
      "挎": 2790,
      "挐": 2791,
      "挑": 2792,
      "挓": 2793,
      "挖": 2794,
      "挚": 2795,
      "挛": 2796,
      "挝": 2797,
      "挞": 2798,
      "挟": 2799,
      "挠": 2800,
      "挡": 2801,
      "挢": 2802,
      "挣": 2803,
      "挤": 2804,
      "挥": 2805,
      "挨": 2806,
      "挪": 2807,
      "挫": 2808,
      "振": 2809,
      "挲": 2810,
      "挹": 2811,
      "挺": 2812,
      "挽": 2813,
      "捂": 2814,
      "捄": 2815,
      "捅": 2816,
      "捆": 2817,
      "捉": 2818,
      "捋": 2819,
      "捌": 2820,
      "捍": 2821,
      "捎": 2822,
      "捏": 2823,
      "捐": 2824,
      "捕": 2825,
      "捞": 2826,
      "损": 2827,
      "捡": 2828,
      "换": 2829,
      "捣": 2830,
      "捧": 2831,
      "捨": 2832,
      "捭": 2833,
      "据": 2834,
      "捱": 2835,
      "捶": 2836,
      "捷": 2837,
      "捺": 2838,
      "捻": 2839,
      "掀": 2840,
      "掂": 2841,
      "掃": 2842,
      "掇": 2843,
      "授": 2844,
      "掉": 2845,
      "掊": 2846,
      "掌": 2847,
      "掎": 2848,
      "掏": 2849,
      "掐": 2850,
      "排": 2851,
      "掖": 2852,
      "掘": 2853,
      "掠": 2854,
      "採": 2855,
      "探": 2856,
      "掣": 2857,
      "接": 2858,
      "控": 2859,
      "推": 2860,
      "掩": 2861,
      "措": 2862,
      "掬": 2863,
      "掮": 2864,
      "掰": 2865,
      "掳": 2866,
      "掴": 2867,
      "掷": 2868,
      "掸": 2869,
      "掺": 2870,
      "掼": 2871,
      "掾": 2872,
      "揀": 2873,
      "揄": 2874,
      "揆": 2875,
      "揉": 2876,
      "揍": 2877,
      "揎": 2878,
      "描": 2879,
      "提": 2880,
      "揑": 2881,
      "插": 2882,
      "揕": 2883,
      "揖": 2884,
      "換": 2885,
      "揠": 2886,
      "握": 2887,
      "揣": 2888,
      "揩": 2889,
      "揪": 2890,
      "揭": 2891,
      "揮": 2892,
      "揰": 2893,
      "揳": 2894,
      "援": 2895,
      "揶": 2896,
      "揷": 2897,
      "揸": 2898,
      "揺": 2899,
      "揽": 2900,
      "揾": 2901,
      "揿": 2902,
      "搀": 2903,
      "搁": 2904,
      "搂": 2905,
      "搅": 2906,
      "損": 2907,
      "搏": 2908,
      "搐": 2909,
      "搓": 2910,
      "搔": 2911,
      "搛": 2912,
      "搜": 2913,
      "搞": 2914,
      "搠": 2915,
      "搡": 2916,
      "搦": 2917,
      "搧": 2918,
      "搪": 2919,
      "搬": 2920,
      "搭": 2921,
      "搯": 2922,
      "搴": 2923,
      "携": 2924,
      "搽": 2925,
      "搿": 2926,
      "摁": 2927,
      "摄": 2928,
      "摆": 2929,
      "摇": 2930,
      "摈": 2931,
      "摊": 2932,
      "摒": 2933,
      "摔": 2934,
      "摘": 2935,
      "摞": 2936,
      "摧": 2937,
      "摩": 2938,
      "摭": 2939,
      "摸": 2940,
      "摹": 2941,
      "摺": 2942,
      "摽": 2943,
      "撂": 2944,
      "撅": 2945,
      "撇": 2946,
      "撑": 2947,
      "撒": 2948,
      "撕": 2949,
      "撞": 2950,
      "撤": 2951,
      "撩": 2952,
      "撬": 2953,
      "播": 2954,
      "撮": 2955,
      "撰": 2956,
      "撲": 2957,
      "撵": 2958,
      "撷": 2959,
      "撸": 2960,
      "撹": 2961,
      "撺": 2962,
      "撼": 2963,
      "撿": 2964,
      "擀": 2965,
      "擁": 2966,
      "擂": 2967,
      "擅": 2968,
      "操": 2969,
      "擎": 2970,
      "擐": 2971,
      "擒": 2972,
      "擔": 2973,
      "擗": 2974,
      "擘": 2975,
      "擞": 2976,
      "擠": 2977,
      "擡": 2978,
      "擢": 2979,
      "擤": 2980,
      "擦": 2981,
      "擱": 2982,
      "擺": 2983,
      "擾": 2984,
      "擿": 2985,
      "攀": 2986,
      "攒": 2987,
      "攘": 2988,
      "攞": 2989,
      "攤": 2990,
      "攥": 2991,
      "攪": 2992,
      "攫": 2993,
      "攮": 2994,
      "支": 2995,
      "攲": 2996,
      "收": 2997,
      "攸": 2998,
      "改": 2999,
      "攻": 3000,
      "攽": 3001,
      "放": 3002,
      "政": 3003,
      "故": 3004,
      "效": 3005,
      "敌": 3006,
      "敏": 3007,
      "救": 3008,
      "敕": 3009,
      "敖": 3010,
      "敗": 3011,
      "教": 3012,
      "敛": 3013,
      "敝": 3014,
      "敞": 3015,
      "敢": 3016,
      "散": 3017,
      "敦": 3018,
      "敫": 3019,
      "敬": 3020,
      "数": 3021,
      "敲": 3022,
      "整": 3023,
      "敵": 3024,
      "敷": 3025,
      "數": 3026,
      "文": 3027,
      "斋": 3028,
      "斌": 3029,
      "斐": 3030,
      "斑": 3031,
      "斓": 3032,
      "斗": 3033,
      "料": 3034,
      "斛": 3035,
      "斜": 3036,
      "斟": 3037,
      "斡": 3038,
      "斤": 3039,
      "斥": 3040,
      "斧": 3041,
      "斨": 3042,
      "斩": 3043,
      "斫": 3044,
      "断": 3045,
      "斯": 3046,
      "新": 3047,
      "斶": 3048,
      "斷": 3049,
      "方": 3050,
      "於": 3051,
      "施": 3052,
      "旁": 3053,
      "旃": 3054,
      "旄": 3055,
      "旅": 3056,
      "旆": 3057,
      "旋": 3058,
      "旌": 3059,
      "旎": 3060,
      "族": 3061,
      "旒": 3062,
      "旖": 3063,
      "旗": 3064,
      "无": 3065,
      "既": 3066,
      "日": 3067,
      "旦": 3068,
      "旧": 3069,
      "旨": 3070,
      "早": 3071,
      "旬": 3072,
      "旭": 3073,
      "旮": 3074,
      "旯": 3075,
      "旰": 3076,
      "旱": 3077,
      "时": 3078,
      "旷": 3079,
      "旸": 3080,
      "旺": 3081,
      "旻": 3082,
      "旽": 3083,
      "昀": 3084,
      "昂": 3085,
      "昃": 3086,
      "昄": 3087,
      "昆": 3088,
      "昇": 3089,
      "昉": 3090,
      "昊": 3091,
      "昌": 3092,
      "明": 3093,
      "昏": 3094,
      "易": 3095,
      "昔": 3096,
      "昕": 3097,
      "昙": 3098,
      "星": 3099,
      "映": 3100,
      "春": 3101,
      "昧": 3102,
      "昨": 3103,
      "昪": 3104,
      "昭": 3105,
      "是": 3106,
      "昱": 3107,
      "昳": 3108,
      "昴": 3109,
      "昵": 3110,
      "昶": 3111,
      "昼": 3112,
      "显": 3113,
      "晁": 3114,
      "時": 3115,
      "晃": 3116,
      "晋": 3117,
      "晌": 3118,
      "晏": 3119,
      "晒": 3120,
      "晓": 3121,
      "晔": 3122,
      "晕": 3123,
      "晖": 3124,
      "晗": 3125,
      "晚": 3126,
      "晞": 3127,
      "晟": 3128,
      "晤": 3129,
      "晦": 3130,
      "晨": 3131,
      "晩": 3132,
      "晬": 3133,
      "普": 3134,
      "景": 3135,
      "晰": 3136,
      "晳": 3137,
      "晴": 3138,
      "晶": 3139,
      "晷": 3140,
      "智": 3141,
      "晻": 3142,
      "晾": 3143,
      "暂": 3144,
      "暄": 3145,
      "暇": 3146,
      "暉": 3147,
      "暌": 3148,
      "暑": 3149,
      "暖": 3150,
      "暗": 3151,
      "暝": 3152,
      "暠": 3153,
      "暧": 3154,
      "暨": 3155,
      "暫": 3156,
      "暮": 3157,
      "暱": 3158,
      "暴": 3159,
      "暹": 3160,
      "暼": 3161,
      "暾": 3162,
      "曈": 3163,
      "曌": 3164,
      "曙": 3165,
      "曛": 3166,
      "曜": 3167,
      "曝": 3168,
      "曠": 3169,
      "曦": 3170,
      "曩": 3171,
      "曬": 3172,
      "曰": 3173,
      "曲": 3174,
      "曳": 3175,
      "更": 3176,
      "曷": 3177,
      "書": 3178,
      "曹": 3179,
      "曼": 3180,
      "曾": 3181,
      "替": 3182,
      "最": 3183,
      "朁": 3184,
      "會": 3185,
      "朆": 3186,
      "月": 3187,
      "有": 3188,
      "朊": 3189,
      "朋": 3190,
      "服": 3191,
      "朐": 3192,
      "朓": 3193,
      "朔": 3194,
      "朕": 3195,
      "朗": 3196,
      "望": 3197,
      "朝": 3198,
      "期": 3199,
      "朦": 3200,
      "木": 3201,
      "未": 3202,
      "末": 3203,
      "本": 3204,
      "札": 3205,
      "术": 3206,
      "朱": 3207,
      "朴": 3208,
      "朵": 3209,
      "机": 3210,
      "朽": 3211,
      "杀": 3212,
      "杂": 3213,
      "权": 3214,
      "杄": 3215,
      "杆": 3216,
      "杈": 3217,
      "杉": 3218,
      "杋": 3219,
      "杌": 3220,
      "李": 3221,
      "杏": 3222,
      "材": 3223,
      "村": 3224,
      "杓": 3225,
      "杖": 3226,
      "杜": 3227,
      "杞": 3228,
      "束": 3229,
      "杠": 3230,
      "条": 3231,
      "来": 3232,
      "杧": 3233,
      "杨": 3234,
      "杪": 3235,
      "杭": 3236,
      "杮": 3237,
      "杯": 3238,
      "杰": 3239,
      "東": 3240,
      "杲": 3241,
      "杳": 3242,
      "杵": 3243,
      "杷": 3244,
      "杼": 3245,
      "松": 3246,
      "板": 3247,
      "极": 3248,
      "构": 3249,
      "枇": 3250,
      "枉": 3251,
      "枋": 3252,
      "析": 3253,
      "枕": 3254,
      "林": 3255,
      "枚": 3256,
      "果": 3257,
      "枝": 3258,
      "枞": 3259,
      "枢": 3260,
      "枣": 3261,
      "枥": 3262,
      "枨": 3263,
      "枪": 3264,
      "枫": 3265,
      "枬": 3266,
      "枭": 3267,
      "枯": 3268,
      "枰": 3269,
      "枳": 3270,
      "枴": 3271,
      "枵": 3272,
      "架": 3273,
      "枷": 3274,
      "枸": 3275,
      "枹": 3276,
      "枻": 3277,
      "柁": 3278,
      "柃": 3279,
      "柄": 3280,
      "柏": 3281,
      "某": 3282,
      "柑": 3283,
      "柒": 3284,
      "染": 3285,
      "柔": 3286,
      "柘": 3287,
      "柙": 3288,
      "柚": 3289,
      "柜": 3290,
      "柝": 3291,
      "柞": 3292,
      "柠": 3293,
      "柢": 3294,
      "查": 3295,
      "柩": 3296,
      "柬": 3297,
      "柯": 3298,
      "柰": 3299,
      "柱": 3300,
      "柳": 3301,
      "柴": 3302,
      "柵": 3303,
      "柺": 3304,
      "査": 3305,
      "柽": 3306,
      "柿": 3307,
      "栀": 3308,
      "栅": 3309,
      "标": 3310,
      "栈": 3311,
      "栉": 3312,
      "栊": 3313,
      "栋": 3314,
      "栌": 3315,
      "栎": 3316,
      "栏": 3317,
      "树": 3318,
      "栓": 3319,
      "栖": 3320,
      "栗": 3321,
      "栘": 3322,
      "栝": 3323,
      "校": 3324,
      "栩": 3325,
      "株": 3326,
      "栱": 3327,
      "栲": 3328,
      "栳": 3329,
      "样": 3330,
      "核": 3331,
      "根": 3332,
      "格": 3333,
      "栽": 3334,
      "栾": 3335,
      "桀": 3336,
      "桁": 3337,
      "桂": 3338,
      "桃": 3339,
      "桄": 3340,
      "桅": 3341,
      "框": 3342,
      "案": 3343,
      "桉": 3344,
      "桌": 3345,
      "桎": 3346,
      "桐": 3347,
      "桑": 3348,
      "桓": 3349,
      "桔": 3350,
      "桕": 3351,
      "桠": 3352,
      "桡": 3353,
      "桢": 3354,
      "档": 3355,
      "桤": 3356,
      "桥": 3357,
      "桦": 3358,
      "桧": 3359,
      "桨": 3360,
      "桩": 3361,
      "桫": 3362,
      "桴": 3363,
      "桶": 3364,
      "桷": 3365,
      "桼": 3366,
      "梁": 3367,
      "梅": 3368,
      "梆": 3369,
      "梏": 3370,
      "梓": 3371,
      "梗": 3372,
      "條": 3373,
      "梠": 3374,
      "梢": 3375,
      "梦": 3376,
      "梧": 3377,
      "梨": 3378,
      "梭": 3379,
      "梯": 3380,
      "械": 3381,
      "梳": 3382,
      "梵": 3383,
      "梿": 3384,
      "检": 3385,
      "棂": 3386,
      "棄": 3387,
      "棉": 3388,
      "棋": 3389,
      "棍": 3390,
      "棒": 3391,
      "棓": 3392,
      "棕": 3393,
      "棗": 3394,
      "棘": 3395,
      "棚": 3396,
      "棠": 3397,
      "棣": 3398,
      "棨": 3399,
      "棪": 3400,
      "棫": 3401,
      "森": 3402,
      "棰": 3403,
      "棱": 3404,
      "棲": 3405,
      "棵": 3406,
      "棹": 3407,
      "棺": 3408,
      "棼": 3409,
      "椁": 3410,
      "椅": 3411,
      "椋": 3412,
      "植": 3413,
      "椎": 3414,
      "椐": 3415,
      "椒": 3416,
      "検": 3417,
      "椟": 3418,
      "椤": 3419,
      "椪": 3420,
      "椭": 3421,
      "椰": 3422,
      "椴": 3423,
      "椹": 3424,
      "椽": 3425,
      "椿": 3426,
      "楂": 3427,
      "楔": 3428,
      "楚": 3429,
      "楛": 3430,
      "楝": 3431,
      "楞": 3432,
      "楠": 3433,
      "楣": 3434,
      "楦": 3435,
      "楫": 3436,
      "業": 3437,
      "楮": 3438,
      "楯": 3439,
      "楱": 3440,
      "楲": 3441,
      "極": 3442,
      "楷": 3443,
      "楸": 3444,
      "楹": 3445,
      "楼": 3446,
      "概": 3447,
      "榄": 3448,
      "榆": 3449,
      "榈": 3450,
      "榉": 3451,
      "榔": 3452,
      "榕": 3453,
      "榖": 3454,
      "榘": 3455,
      "榛": 3456,
      "榜": 3457,
      "榧": 3458,
      "榨": 3459,
      "榫": 3460,
      "榭": 3461,
      "榮": 3462,
      "榴": 3463,
      "榷": 3464,
      "榻": 3465,
      "槁": 3466,
      "槃": 3467,
      "槊": 3468,
      "槌": 3469,
      "槎": 3470,
      "槐": 3471,
      "槖": 3472,
      "槛": 3473,
      "槜": 3474,
      "槟": 3475,
      "槭": 3476,
      "槲": 3477,
      "槻": 3478,
      "槽": 3479,
      "槿": 3480,
      "樂": 3481,
      "樊": 3482,
      "樓": 3483,
      "樗": 3484,
      "樘": 3485,
      "樟": 3486,
      "模": 3487,
      "樣": 3488,
      "樨": 3489,
      "横": 3490,
      "樯": 3491,
      "樱": 3492,
      "樵": 3493,
      "樹": 3494,
      "樽": 3495,
      "樾": 3496,
      "橄": 3497,
      "橇": 3498,
      "橐": 3499,
      "橑": 3500,
      "橘": 3501,
      "橙": 3502,
      "橛": 3503,
      "機": 3504,
      "橡": 3505,
      "橦": 3506,
      "橱": 3507,
      "橹": 3508,
      "檀": 3509,
      "檄": 3510,
      "檇": 3511,
      "檐": 3512,
      "檗": 3513,
      "檝": 3514,
      "檠": 3515,
      "檣": 3516,
      "檥": 3517,
      "檩": 3518,
      "檫": 3519,
      "檬": 3520,
      "檵": 3521,
      "櫃": 3522,
      "櫈": 3523,
      "櫋": 3524,
      "欠": 3525,
      "次": 3526,
      "欢": 3527,
      "欣": 3528,
      "欤": 3529,
      "欧": 3530,
      "欲": 3531,
      "欷": 3532,
      "欸": 3533,
      "欹": 3534,
      "欺": 3535,
      "欻": 3536,
      "款": 3537,
      "歃": 3538,
      "歆": 3539,
      "歇": 3540,
      "歉": 3541,
      "歌": 3542,
      "歎": 3543,
      "歐": 3544,
      "歔": 3545,
      "歕": 3546,
      "歘": 3547,
      "歙": 3548,
      "歠": 3549,
      "歡": 3550,
      "止": 3551,
      "正": 3552,
      "此": 3553,
      "步": 3554,
      "武": 3555,
      "歧": 3556,
      "歪": 3557,
      "歲": 3558,
      "歸": 3559,
      "歹": 3560,
      "死": 3561,
      "歼": 3562,
      "殁": 3563,
      "殂": 3564,
      "殃": 3565,
      "殄": 3566,
      "殆": 3567,
      "殇": 3568,
      "殉": 3569,
      "殊": 3570,
      "残": 3571,
      "殍": 3572,
      "殒": 3573,
      "殓": 3574,
      "殖": 3575,
      "殚": 3576,
      "殛": 3577,
      "殡": 3578,
      "殪": 3579,
      "殳": 3580,
      "殴": 3581,
      "段": 3582,
      "殷": 3583,
      "殽": 3584,
      "殿": 3585,
      "毀": 3586,
      "毁": 3587,
      "毂": 3588,
      "毅": 3589,
      "毋": 3590,
      "母": 3591,
      "毎": 3592,
      "每": 3593,
      "毐": 3594,
      "毒": 3595,
      "毓": 3596,
      "比": 3597,
      "毕": 3598,
      "毗": 3599,
      "毙": 3600,
      "毛": 3601,
      "毡": 3602,
      "毫": 3603,
      "毬": 3604,
      "毯": 3605,
      "毳": 3606,
      "毽": 3607,
      "氅": 3608,
      "氆": 3609,
      "氇": 3610,
      "氍": 3611,
      "氏": 3612,
      "氐": 3613,
      "民": 3614,
      "氓": 3615,
      "气": 3616,
      "氕": 3617,
      "氖": 3618,
      "気": 3619,
      "氘": 3620,
      "氙": 3621,
      "氚": 3622,
      "氛": 3623,
      "氜": 3624,
      "氞": 3625,
      "氟": 3626,
      "氡": 3627,
      "氢": 3628,
      "氣": 3629,
      "氤": 3630,
      "氦": 3631,
      "氧": 3632,
      "氨": 3633,
      "氩": 3634,
      "氪": 3635,
      "氮": 3636,
      "氯": 3637,
      "氰": 3638,
      "氲": 3639,
      "水": 3640,
      "氵": 3641,
      "永": 3642,
      "氹": 3643,
      "氽": 3644,
      "氾": 3645,
      "汀": 3646,
      "汁": 3647,
      "求": 3648,
      "汆": 3649,
      "汇": 3650,
      "汉": 3651,
      "汊": 3652,
      "汎": 3653,
      "汐": 3654,
      "汔": 3655,
      "汕": 3656,
      "汗": 3657,
      "汛": 3658,
      "汜": 3659,
      "汝": 3660,
      "汞": 3661,
      "江": 3662,
      "池": 3663,
      "污": 3664,
      "汤": 3665,
      "汧": 3666,
      "汨": 3667,
      "汩": 3668,
      "汪": 3669,
      "汭": 3670,
      "汰": 3671,
      "汲": 3672,
      "汴": 3673,
      "汶": 3674,
      "汹": 3675,
      "決": 3676,
      "汽": 3677,
      "汾": 3678,
      "沁": 3679,
      "沂": 3680,
      "沃": 3681,
      "沅": 3682,
      "沆": 3683,
      "沈": 3684,
      "沉": 3685,
      "沌": 3686,
      "沏": 3687,
      "沐": 3688,
      "沒": 3689,
      "沓": 3690,
      "沔": 3691,
      "沖": 3692,
      "沙": 3693,
      "沚": 3694,
      "沛": 3695,
      "沟": 3696,
      "没": 3697,
      "沢": 3698,
      "沣": 3699,
      "沤": 3700,
      "沥": 3701,
      "沦": 3702,
      "沧": 3703,
      "沪": 3704,
      "沫": 3705,
      "沬": 3706,
      "沭": 3707,
      "沮": 3708,
      "沱": 3709,
      "河": 3710,
      "沷": 3711,
      "沸": 3712,
      "油": 3713,
      "治": 3714,
      "沼": 3715,
      "沽": 3716,
      "沾": 3717,
      "沿": 3718,
      "泄": 3719,
      "泅": 3720,
      "泉": 3721,
      "泊": 3722,
      "泌": 3723,
      "泐": 3724,
      "泓": 3725,
      "泔": 3726,
      "法": 3727,
      "泗": 3728,
      "泙": 3729,
      "泛": 3730,
      "泞": 3731,
      "泠": 3732,
      "泡": 3733,
      "波": 3734,
      "泣": 3735,
      "泥": 3736,
      "注": 3737,
      "泪": 3738,
      "泫": 3739,
      "泮": 3740,
      "泯": 3741,
      "泰": 3742,
      "泱": 3743,
      "泳": 3744,
      "泵": 3745,
      "泷": 3746,
      "泸": 3747,
      "泺": 3748,
      "泻": 3749,
      "泼": 3750,
      "泽": 3751,
      "泾": 3752,
      "洁": 3753,
      "洄": 3754,
      "洇": 3755,
      "洋": 3756,
      "洌": 3757,
      "洎": 3758,
      "洐": 3759,
      "洒": 3760,
      "洗": 3761,
      "洙": 3762,
      "洛": 3763,
      "洞": 3764,
      "洣": 3765,
      "津": 3766,
      "洧": 3767,
      "洨": 3768,
      "洪": 3769,
      "洮": 3770,
      "洱": 3771,
      "洲": 3772,
      "洳": 3773,
      "洵": 3774,
      "洹": 3775,
      "活": 3776,
      "洼": 3777,
      "洽": 3778,
      "派": 3779,
      "流": 3780,
      "浃": 3781,
      "浄": 3782,
      "浅": 3783,
      "浆": 3784,
      "浇": 3785,
      "浊": 3786,
      "测": 3787,
      "济": 3788,
      "浏": 3789,
      "浐": 3790,
      "浑": 3791,
      "浒": 3792,
      "浓": 3793,
      "浔": 3794,
      "浙": 3795,
      "浚": 3796,
      "浜": 3797,
      "浞": 3798,
      "浠": 3799,
      "浣": 3800,
      "浥": 3801,
      "浦": 3802,
      "浩": 3803,
      "浪": 3804,
      "浭": 3805,
      "浮": 3806,
      "浴": 3807,
      "海": 3808,
      "浸": 3809,
      "浼": 3810,
      "涂": 3811,
      "涅": 3812,
      "消": 3813,
      "涉": 3814,
      "涊": 3815,
      "涌": 3816,
      "涎": 3817,
      "涑": 3818,
      "涓": 3819,
      "涔": 3820,
      "涕": 3821,
      "涘": 3822,
      "涙": 3823,
      "涛": 3824,
      "涝": 3825,
      "涞": 3826,
      "涟": 3827,
      "涡": 3828,
      "涣": 3829,
      "涤": 3830,
      "润": 3831,
      "涧": 3832,
      "涨": 3833,
      "涩": 3834,
      "涪": 3835,
      "涮": 3836,
      "涯": 3837,
      "液": 3838,
      "涴": 3839,
      "涵": 3840,
      "涸": 3841,
      "涼": 3842,
      "涿": 3843,
      "淀": 3844,
      "淄": 3845,
      "淅": 3846,
      "淆": 3847,
      "淇": 3848,
      "淈": 3849,
      "淋": 3850,
      "淌": 3851,
      "淑": 3852,
      "淓": 3853,
      "淖": 3854,
      "淘": 3855,
      "淙": 3856,
      "淚": 3857,
      "淝": 3858,
      "淞": 3859,
      "淡": 3860,
      "淤": 3861,
      "淦": 3862,
      "淫": 3863,
      "淬": 3864,
      "淮": 3865,
      "深": 3866,
      "淳": 3867,
      "混": 3868,
      "淸": 3869,
      "淹": 3870,
      "添": 3871,
      "淼": 3872,
      "清": 3873,
      "渊": 3874,
      "渌": 3875,
      "渍": 3876,
      "渎": 3877,
      "渐": 3878,
      "渑": 3879,
      "渔": 3880,
      "渗": 3881,
      "渚": 3882,
      "渝": 3883,
      "渠": 3884,
      "渡": 3885,
      "渣": 3886,
      "渤": 3887,
      "渥": 3888,
      "渧": 3889,
      "温": 3890,
      "渭": 3891,
      "港": 3892,
      "渲": 3893,
      "渴": 3894,
      "游": 3895,
      "渺": 3896,
      "渻": 3897,
      "湃": 3898,
      "湄": 3899,
      "湉": 3900,
      "湊": 3901,
      "湍": 3902,
      "湎": 3903,
      "湓": 3904,
      "湔": 3905,
      "湖": 3906,
      "湘": 3907,
      "湛": 3908,
      "湜": 3909,
      "湟": 3910,
      "湣": 3911,
      "湦": 3912,
      "湧": 3913,
      "湩": 3914,
      "湫": 3915,
      "湮": 3916,
      "湯": 3917,
      "湲": 3918,
      "湾": 3919,
      "湿": 3920,
      "満": 3921,
      "溃": 3922,
      "溅": 3923,
      "溇": 3924,
      "溉": 3925,
      "溏": 3926,
      "源": 3927,
      "準": 3928,
      "溘": 3929,
      "溜": 3930,
      "溟": 3931,
      "溢": 3932,
      "溥": 3933,
      "溧": 3934,
      "溪": 3935,
      "溫": 3936,
      "溯": 3937,
      "溱": 3938,
      "溴": 3939,
      "溶": 3940,
      "溷": 3941,
      "溺": 3942,
      "溼": 3943,
      "溽": 3944,
      "滁": 3945,
      "滂": 3946,
      "滅": 3947,
      "滇": 3948,
      "滋": 3949,
      "滏": 3950,
      "滑": 3951,
      "滓": 3952,
      "滔": 3953,
      "滕": 3954,
      "滖": 3955,
      "滚": 3956,
      "滞": 3957,
      "滟": 3958,
      "满": 3959,
      "滢": 3960,
      "滤": 3961,
      "滥": 3962,
      "滦": 3963,
      "滨": 3964,
      "滩": 3965,
      "滫": 3966,
      "滳": 3967,
      "滴": 3968,
      "滹": 3969,
      "滺": 3970,
      "滽": 3971,
      "滾": 3972,
      "滿": 3973,
      "漁": 3974,
      "漂": 3975,
      "漆": 3976,
      "漉": 3977,
      "漏": 3978,
      "漓": 3979,
      "演": 3980,
      "漕": 3981,
      "漠": 3982,
      "漢": 3983,
      "漦": 3984,
      "漩": 3985,
      "漪": 3986,
      "漫": 3987,
      "漯": 3988,
      "漱": 3989,
      "漳": 3990,
      "漸": 3991,
      "漼": 3992,
      "漾": 3993,
      "潆": 3994,
      "潇": 3995,
      "潋": 3996,
      "潍": 3997,
      "潏": 3998,
      "潘": 3999,
      "潜": 4000,
      "潞": 4001,
      "潟": 4002,
      "潢": 4003,
      "潦": 4004,
      "潭": 4005,
      "潮": 4006,
      "潲": 4007,
      "潴": 4008,
      "潸": 4009,
      "潺": 4010,
      "潼": 4011,
      "潽": 4012,
      "澂": 4013,
      "澄": 4014,
      "澆": 4015,
      "澈": 4016,
      "澍": 4017,
      "澎": 4018,
      "澔": 4019,
      "澗": 4020,
      "澜": 4021,
      "澡": 4022,
      "澦": 4023,
      "澧": 4024,
      "澨": 4025,
      "澳": 4026,
      "澶": 4027,
      "澹": 4028,
      "激": 4029,
      "濂": 4030,
      "濑": 4031,
      "濒": 4032,
      "濕": 4033,
      "濛": 4034,
      "濞": 4035,
      "濠": 4036,
      "濡": 4037,
      "濩": 4038,
      "濮": 4039,
      "濯": 4040,
      "濱": 4041,
      "濺": 4042,
      "瀑": 4043,
      "瀚": 4044,
      "瀛": 4045,
      "瀣": 4046,
      "瀵": 4047,
      "灌": 4048,
      "灏": 4049,
      "灜": 4050,
      "灞": 4051,
      "火": 4052,
      "灬": 4053,
      "灭": 4054,
      "灯": 4055,
      "灰": 4056,
      "灵": 4057,
      "灶": 4058,
      "灸": 4059,
      "灼": 4060,
      "灾": 4061,
      "灿": 4062,
      "炀": 4063,
      "炅": 4064,
      "炆": 4065,
      "炉": 4066,
      "炊": 4067,
      "炎": 4068,
      "炏": 4069,
      "炒": 4070,
      "炔": 4071,
      "炕": 4072,
      "炖": 4073,
      "炙": 4074,
      "炜": 4075,
      "炝": 4076,
      "炟": 4077,
      "炫": 4078,
      "炬": 4079,
      "炭": 4080,
      "炮": 4081,
      "炯": 4082,
      "炳": 4083,
      "炷": 4084,
      "炸": 4085,
      "点": 4086,
      "為": 4087,
      "炼": 4088,
      "炽": 4089,
      "烀": 4090,
      "烁": 4091,
      "烂": 4092,
      "烃": 4093,
      "烈": 4094,
      "烊": 4095,
      "烏": 4096,
      "烘": 4097,
      "烙": 4098,
      "烛": 4099,
      "烜": 4100,
      "烟": 4101,
      "烤": 4102,
      "烦": 4103,
      "烧": 4104,
      "烨": 4105,
      "烩": 4106,
      "烫": 4107,
      "烬": 4108,
      "热": 4109,
      "烯": 4110,
      "烷": 4111,
      "烹": 4112,
      "烽": 4113,
      "焉": 4114,
      "焊": 4115,
      "焐": 4116,
      "焑": 4117,
      "焓": 4118,
      "焕": 4119,
      "焖": 4120,
      "焗": 4121,
      "焘": 4122,
      "焙": 4123,
      "焚": 4124,
      "無": 4125,
      "焦": 4126,
      "焯": 4127,
      "焰": 4128,
      "焱": 4129,
      "然": 4130,
      "煅": 4131,
      "煉": 4132,
      "煊": 4133,
      "煌": 4134,
      "煎": 4135,
      "煕": 4136,
      "煙": 4137,
      "煜": 4138,
      "煞": 4139,
      "煣": 4140,
      "煤": 4141,
      "煦": 4142,
      "照": 4143,
      "煨": 4144,
      "煩": 4145,
      "煮": 4146,
      "煲": 4147,
      "煳": 4148,
      "煴": 4149,
      "煸": 4150,
      "煽": 4151,
      "熄": 4152,
      "熇": 4153,
      "熊": 4154,
      "熏": 4155,
      "熔": 4156,
      "熘": 4157,
      "熙": 4158,
      "熜": 4159,
      "熟": 4160,
      "熠": 4161,
      "熨": 4162,
      "熬": 4163,
      "熱": 4164,
      "熳": 4165,
      "熵": 4166,
      "熹": 4167,
      "熺": 4168,
      "燃": 4169,
      "燊": 4170,
      "燋": 4171,
      "燎": 4172,
      "燒": 4173,
      "燔": 4174,
      "燕": 4175,
      "燖": 4176,
      "燚": 4177,
      "燥": 4178,
      "燧": 4179,
      "燮": 4180,
      "燹": 4181,
      "燼": 4182,
      "爆": 4183,
      "爚": 4184,
      "爛": 4185,
      "爝": 4186,
      "爨": 4187,
      "爪": 4188,
      "爬": 4189,
      "爭": 4190,
      "爰": 4191,
      "爱": 4192,
      "爵": 4193,
      "父": 4194,
      "爷": 4195,
      "爸": 4196,
      "爹": 4197,
      "爺": 4198,
      "爻": 4199,
      "爽": 4200,
      "爾": 4201,
      "爿": 4202,
      "牆": 4203,
      "片": 4204,
      "版": 4205,
      "牌": 4206,
      "牍": 4207,
      "牒": 4208,
      "牖": 4209,
      "牙": 4210,
      "牛": 4211,
      "牝": 4212,
      "牟": 4213,
      "牠": 4214,
      "牡": 4215,
      "牢": 4216,
      "牤": 4217,
      "牦": 4218,
      "牧": 4219,
      "物": 4220,
      "牯": 4221,
      "牲": 4222,
      "牵": 4223,
      "特": 4224,
      "牺": 4225,
      "牽": 4226,
      "犀": 4227,
      "犁": 4228,
      "犄": 4229,
      "犇": 4230,
      "犊": 4231,
      "犍": 4232,
      "犏": 4233,
      "犑": 4234,
      "犒": 4235,
      "犟": 4236,
      "犬": 4237,
      "犭": 4238,
      "犯": 4239,
      "犰": 4240,
      "犲": 4241,
      "犴": 4242,
      "状": 4243,
      "犷": 4244,
      "犸": 4245,
      "犹": 4246,
      "狀": 4247,
      "狁": 4248,
      "狂": 4249,
      "狃": 4250,
      "狄": 4251,
      "狈": 4252,
      "狍": 4253,
      "狎": 4254,
      "狐": 4255,
      "狒": 4256,
      "狗": 4257,
      "狙": 4258,
      "狝": 4259,
      "狞": 4260,
      "狠": 4261,
      "狡": 4262,
      "狤": 4263,
      "狩": 4264,
      "独": 4265,
      "狭": 4266,
      "狮": 4267,
      "狯": 4268,
      "狰": 4269,
      "狱": 4270,
      "狲": 4271,
      "狳": 4272,
      "狴": 4273,
      "狷": 4274,
      "狸": 4275,
      "狺": 4276,
      "狻": 4277,
      "狼": 4278,
      "猁": 4279,
      "猂": 4280,
      "猇": 4281,
      "猊": 4282,
      "猎": 4283,
      "猕": 4284,
      "猖": 4285,
      "猗": 4286,
      "猛": 4287,
      "猜": 4288,
      "猝": 4289,
      "猞": 4290,
      "猡": 4291,
      "猢": 4292,
      "猥": 4293,
      "猩": 4294,
      "猪": 4295,
      "猫": 4296,
      "猬": 4297,
      "献": 4298,
      "猰": 4299,
      "猱": 4300,
      "猴": 4301,
      "猷": 4302,
      "猸": 4303,
      "猹": 4304,
      "猾": 4305,
      "猿": 4306,
      "獅": 4307,
      "獎": 4308,
      "獐": 4309,
      "獒": 4310,
      "獗": 4311,
      "獠": 4312,
      "獬": 4313,
      "獭": 4314,
      "獯": 4315,
      "獲": 4316,
      "獴": 4317,
      "獵": 4318,
      "獾": 4319,
      "玄": 4320,
      "率": 4321,
      "玉": 4322,
      "王": 4323,
      "玎": 4324,
      "玑": 4325,
      "玕": 4326,
      "玖": 4327,
      "玘": 4328,
      "玛": 4329,
      "玟": 4330,
      "玠": 4331,
      "玡": 4332,
      "玥": 4333,
      "玦": 4334,
      "玩": 4335,
      "玫": 4336,
      "玮": 4337,
      "环": 4338,
      "现": 4339,
      "玲": 4340,
      "玳": 4341,
      "玷": 4342,
      "玹": 4343,
      "玺": 4344,
      "玻": 4345,
      "珀": 4346,
      "珂": 4347,
      "珅": 4348,
      "珈": 4349,
      "珉": 4350,
      "珊": 4351,
      "珍": 4352,
      "珏": 4353,
      "珐": 4354,
      "珑": 4355,
      "珙": 4356,
      "珞": 4357,
      "珠": 4358,
      "珣": 4359,
      "珥": 4360,
      "珦": 4361,
      "珩": 4362,
      "珪": 4363,
      "班": 4364,
      "珮": 4365,
      "珰": 4366,
      "珲": 4367,
      "珺": 4368,
      "現": 4369,
      "球": 4370,
      "琅": 4371,
      "理": 4372,
      "琉": 4373,
      "琊": 4374,
      "琍": 4375,
      "琏": 4376,
      "琐": 4377,
      "琚": 4378,
      "琛": 4379,
      "琢": 4380,
      "琥": 4381,
      "琦": 4382,
      "琨": 4383,
      "琪": 4384,
      "琬": 4385,
      "琮": 4386,
      "琯": 4387,
      "琰": 4388,
      "琳": 4389,
      "琴": 4390,
      "琵": 4391,
      "琶": 4392,
      "琹": 4393,
      "琼": 4394,
      "瑀": 4395,
      "瑁": 4396,
      "瑄": 4397,
      "瑑": 4398,
      "瑕": 4399,
      "瑗": 4400,
      "瑙": 4401,
      "瑚": 4402,
      "瑛": 4403,
      "瑜": 4404,
      "瑝": 4405,
      "瑞": 4406,
      "瑟": 4407,
      "瑪": 4408,
      "瑭": 4409,
      "瑰": 4410,
      "瑶": 4411,
      "瑷": 4412,
      "瑾": 4413,
      "璀": 4414,
      "璁": 4415,
      "璃": 4416,
      "璆": 4417,
      "璇": 4418,
      "璈": 4419,
      "璋": 4420,
      "璌": 4421,
      "璎": 4422,
      "璐": 4423,
      "璘": 4424,
      "璜": 4425,
      "璞": 4426,
      "璟": 4427,
      "璠": 4428,
      "璧": 4429,
      "璨": 4430,
      "環": 4431,
      "璲": 4432,
      "璺": 4433,
      "璿": 4434,
      "瓒": 4435,
      "瓘": 4436,
      "瓜": 4437,
      "瓞": 4438,
      "瓠": 4439,
      "瓢": 4440,
      "瓣": 4441,
      "瓤": 4442,
      "瓦": 4443,
      "瓮": 4444,
      "瓯": 4445,
      "瓴": 4446,
      "瓶": 4447,
      "瓷": 4448,
      "甄": 4449,
      "甍": 4450,
      "甏": 4451,
      "甑": 4452,
      "甓": 4453,
      "甕": 4454,
      "甘": 4455,
      "甙": 4456,
      "甚": 4457,
      "甜": 4458,
      "生": 4459,
      "產": 4460,
      "甥": 4461,
      "用": 4462,
      "甩": 4463,
      "甫": 4464,
      "甬": 4465,
      "甭": 4466,
      "甯": 4467,
      "田": 4468,
      "由": 4469,
      "甲": 4470,
      "申": 4471,
      "电": 4472,
      "甶": 4473,
      "男": 4474,
      "甸": 4475,
      "町": 4476,
      "画": 4477,
      "甾": 4478,
      "畅": 4479,
      "畈": 4480,
      "畋": 4481,
      "界": 4482,
      "畎": 4483,
      "畏": 4484,
      "畔": 4485,
      "留": 4486,
      "畚": 4487,
      "畛": 4488,
      "畜": 4489,
      "畢": 4490,
      "畤": 4491,
      "略": 4492,
      "畦": 4493,
      "番": 4494,
      "畫": 4495,
      "畲": 4496,
      "畴": 4497,
      "當": 4498,
      "畸": 4499,
      "畹": 4500,
      "畿": 4501,
      "疃": 4502,
      "疆": 4503,
      "疊": 4504,
      "疋": 4505,
      "疏": 4506,
      "疑": 4507,
      "疔": 4508,
      "疖": 4509,
      "疗": 4510,
      "疙": 4511,
      "疚": 4512,
      "疝": 4513,
      "疟": 4514,
      "疠": 4515,
      "疡": 4516,
      "疢": 4517,
      "疣": 4518,
      "疤": 4519,
      "疥": 4520,
      "疪": 4521,
      "疫": 4522,
      "疮": 4523,
      "疯": 4524,
      "疱": 4525,
      "疲": 4526,
      "疴": 4527,
      "疵": 4528,
      "疸": 4529,
      "疹": 4530,
      "疼": 4531,
      "疽": 4532,
      "疾": 4533,
      "痂": 4534,
      "病": 4535,
      "症": 4536,
      "痈": 4537,
      "痉": 4538,
      "痊": 4539,
      "痍": 4540,
      "痒": 4541,
      "痔": 4542,
      "痕": 4543,
      "痖": 4544,
      "痘": 4545,
      "痛": 4546,
      "痞": 4547,
      "痢": 4548,
      "痣": 4549,
      "痤": 4550,
      "痧": 4551,
      "痨": 4552,
      "痩": 4553,
      "痪": 4554,
      "痫": 4555,
      "痰": 4556,
      "痱": 4557,
      "痲": 4558,
      "痴": 4559,
      "痹": 4560,
      "痼": 4561,
      "痿": 4562,
      "瘀": 4563,
      "瘁": 4564,
      "瘅": 4565,
      "瘆": 4566,
      "瘌": 4567,
      "瘐": 4568,
      "瘖": 4569,
      "瘗": 4570,
      "瘘": 4571,
      "瘙": 4572,
      "瘟": 4573,
      "瘠": 4574,
      "瘢": 4575,
      "瘤": 4576,
      "瘦": 4577,
      "瘩": 4578,
      "瘪": 4579,
      "瘫": 4580,
      "瘮": 4581,
      "瘴": 4582,
      "瘵": 4583,
      "瘸": 4584,
      "瘾": 4585,
      "瘿": 4586,
      "療": 4587,
      "癌": 4588,
      "癍": 4589,
      "癔": 4590,
      "癖": 4591,
      "癘": 4592,
      "癜": 4593,
      "癞": 4594,
      "癣": 4595,
      "癤": 4596,
      "癫": 4597,
      "癯": 4598,
      "癲": 4599,
      "癸": 4600,
      "登": 4601,
      "發": 4602,
      "白": 4603,
      "百": 4604,
      "皂": 4605,
      "的": 4606,
      "皆": 4607,
      "皇": 4608,
      "皈": 4609,
      "皋": 4610,
      "皎": 4611,
      "皑": 4612,
      "皓": 4613,
      "皖": 4614,
      "皙": 4615,
      "皮": 4616,
      "皱": 4617,
      "皲": 4618,
      "皴": 4619,
      "皿": 4620,
      "盂": 4621,
      "盅": 4622,
      "盆": 4623,
      "盈": 4624,
      "益": 4625,
      "盍": 4626,
      "盎": 4627,
      "盏": 4628,
      "盐": 4629,
      "监": 4630,
      "盒": 4631,
      "盔": 4632,
      "盖": 4633,
      "盗": 4634,
      "盘": 4635,
      "盛": 4636,
      "盜": 4637,
      "盟": 4638,
      "盡": 4639,
      "盤": 4640,
      "盥": 4641,
      "盬": 4642,
      "目": 4643,
      "盯": 4644,
      "盱": 4645,
      "盲": 4646,
      "直": 4647,
      "相": 4648,
      "盹": 4649,
      "盼": 4650,
      "盾": 4651,
      "省": 4652,
      "眄": 4653,
      "眆": 4654,
      "眇": 4655,
      "眈": 4656,
      "眉": 4657,
      "看": 4658,
      "眍": 4659,
      "眙": 4660,
      "真": 4661,
      "眠": 4662,
      "眦": 4663,
      "眨": 4664,
      "眩": 4665,
      "眬": 4666,
      "眯": 4667,
      "眶": 4668,
      "眷": 4669,
      "眸": 4670,
      "眺": 4671,
      "眼": 4672,
      "眾": 4673,
      "着": 4674,
      "睁": 4675,
      "睃": 4676,
      "睇": 4677,
      "睏": 4678,
      "睐": 4679,
      "睑": 4680,
      "睖": 4681,
      "睚": 4682,
      "睛": 4683,
      "睡": 4684,
      "睢": 4685,
      "督": 4686,
      "睥": 4687,
      "睦": 4688,
      "睨": 4689,
      "睫": 4690,
      "睬": 4691,
      "睭": 4692,
      "睹": 4693,
      "睽": 4694,
      "睾": 4695,
      "睿": 4696,
      "瞀": 4697,
      "瞄": 4698,
      "瞅": 4699,
      "瞇": 4700,
      "瞋": 4701,
      "瞌": 4702,
      "瞍": 4703,
      "瞎": 4704,
      "瞑": 4705,
      "瞒": 4706,
      "瞟": 4707,
      "瞠": 4708,
      "瞥": 4709,
      "瞧": 4710,
      "瞩": 4711,
      "瞪": 4712,
      "瞬": 4713,
      "瞭": 4714,
      "瞰": 4715,
      "瞳": 4716,
      "瞻": 4717,
      "瞽": 4718,
      "瞾": 4719,
      "瞿": 4720,
      "矅": 4721,
      "矇": 4722,
      "矍": 4723,
      "矗": 4724,
      "矛": 4725,
      "矜": 4726,
      "矢": 4727,
      "矣": 4728,
      "知": 4729,
      "矩": 4730,
      "矫": 4731,
      "矬": 4732,
      "短": 4733,
      "矮": 4734,
      "石": 4735,
      "矴": 4736,
      "矶": 4737,
      "矸": 4738,
      "矻": 4739,
      "矽": 4740,
      "矾": 4741,
      "矿": 4742,
      "砀": 4743,
      "码": 4744,
      "砂": 4745,
      "砌": 4746,
      "砍": 4747,
      "砑": 4748,
      "砒": 4749,
      "研": 4750,
      "砖": 4751,
      "砗": 4752,
      "砚": 4753,
      "砝": 4754,
      "砟": 4755,
      "砣": 4756,
      "砥": 4757,
      "砦": 4758,
      "砧": 4759,
      "砩": 4760,
      "砬": 4761,
      "砭": 4762,
      "砯": 4763,
      "砰": 4764,
      "破": 4765,
      "砷": 4766,
      "砸": 4767,
      "砹": 4768,
      "砺": 4769,
      "砻": 4770,
      "砾": 4771,
      "础": 4772,
      "硃": 4773,
      "硅": 4774,
      "硇": 4775,
      "硌": 4776,
      "硎": 4777,
      "硏": 4778,
      "硐": 4779,
      "硒": 4780,
      "硕": 4781,
      "硖": 4782,
      "硚": 4783,
      "硝": 4784,
      "硫": 4785,
      "硬": 4786,
      "确": 4787,
      "硷": 4788,
      "硼": 4789,
      "硿": 4790,
      "碁": 4791,
      "碇": 4792,
      "碉": 4793,
      "碌": 4794,
      "碍": 4795,
      "碎": 4796,
      "碏": 4797,
      "碑": 4798,
      "碓": 4799,
      "碗": 4800,
      "碘": 4801,
      "碚": 4802,
      "碛": 4803,
      "碜": 4804,
      "碟": 4805,
      "碡": 4806,
      "碣": 4807,
      "碧": 4808,
      "碰": 4809,
      "碱": 4810,
      "碳": 4811,
      "碴": 4812,
      "碼": 4813,
      "碾": 4814,
      "磁": 4815,
      "磅": 4816,
      "磊": 4817,
      "磋": 4818,
      "磐": 4819,
      "磔": 4820,
      "磕": 4821,
      "磙": 4822,
      "磞": 4823,
      "磡": 4824,
      "磨": 4825,
      "磬": 4826,
      "磲": 4827,
      "磴": 4828,
      "磵": 4829,
      "磷": 4830,
      "磺": 4831,
      "磾": 4832,
      "礁": 4833,
      "礅": 4834,
      "礓": 4835,
      "礤": 4836,
      "礴": 4837,
      "示": 4838,
      "礼": 4839,
      "社": 4840,
      "祀": 4841,
      "祁": 4842,
      "祆": 4843,
      "祇": 4844,
      "祈": 4845,
      "祉": 4846,
      "祎": 4847,
      "祐": 4848,
      "祓": 4849,
      "祖": 4850,
      "祗": 4851,
      "祚": 4852,
      "祛": 4853,
      "祜": 4854,
      "祝": 4855,
      "神": 4856,
      "祟": 4857,
      "祠": 4858,
      "祢": 4859,
      "祥": 4860,
      "祧": 4861,
      "票": 4862,
      "祭": 4863,
      "祯": 4864,
      "祷": 4865,
      "祸": 4866,
      "祺": 4867,
      "禀": 4868,
      "禁": 4869,
      "禄": 4870,
      "禅": 4871,
      "禇": 4872,
      "禊": 4873,
      "福": 4874,
      "禛": 4875,
      "禤": 4876,
      "禧": 4877,
      "禮": 4878,
      "禳": 4879,
      "禹": 4880,
      "禺": 4881,
      "离": 4882,
      "禽": 4883,
      "禾": 4884,
      "秀": 4885,
      "私": 4886,
      "秃": 4887,
      "秆": 4888,
      "秉": 4889,
      "秋": 4890,
      "种": 4891,
      "科": 4892,
      "秒": 4893,
      "秕": 4894,
      "秘": 4895,
      "租": 4896,
      "秣": 4897,
      "秤": 4898,
      "秦": 4899,
      "秧": 4900,
      "秩": 4901,
      "秫": 4902,
      "秬": 4903,
      "秭": 4904,
      "积": 4905,
      "称": 4906,
      "秸": 4907,
      "移": 4908,
      "秽": 4909,
      "秾": 4910,
      "稀": 4911,
      "稃": 4912,
      "程": 4913,
      "稍": 4914,
      "税": 4915,
      "稔": 4916,
      "稗": 4917,
      "稚": 4918,
      "稜": 4919,
      "稞": 4920,
      "稠": 4921,
      "稣": 4922,
      "稧": 4923,
      "種": 4924,
      "稳": 4925,
      "稷": 4926,
      "稹": 4927,
      "稻": 4928,
      "稼": 4929,
      "稽": 4930,
      "稿": 4931,
      "穆": 4932,
      "穑": 4933,
      "穗": 4934,
      "穩": 4935,
      "穫": 4936,
      "穰": 4937,
      "穴": 4938,
      "究": 4939,
      "穷": 4940,
      "穹": 4941,
      "空": 4942,
      "穿": 4943,
      "突": 4944,
      "窃": 4945,
      "窄": 4946,
      "窈": 4947,
      "窋": 4948,
      "窍": 4949,
      "窑": 4950,
      "窒": 4951,
      "窕": 4952,
      "窖": 4953,
      "窗": 4954,
      "窘": 4955,
      "窜": 4956,
      "窝": 4957,
      "窟": 4958,
      "窠": 4959,
      "窣": 4960,
      "窥": 4961,
      "窦": 4962,
      "窨": 4963,
      "窩": 4964,
      "窭": 4965,
      "窮": 4966,
      "窳": 4967,
      "窸": 4968,
      "窾": 4969,
      "窿": 4970,
      "立": 4971,
      "竖": 4972,
      "站": 4973,
      "竞": 4974,
      "竟": 4975,
      "章": 4976,
      "竣": 4977,
      "童": 4978,
      "竦": 4979,
      "竭": 4980,
      "端": 4981,
      "競": 4982,
      "竹": 4983,
      "竺": 4984,
      "竽": 4985,
      "竿": 4986,
      "笃": 4987,
      "笄": 4988,
      "笆": 4989,
      "笈": 4990,
      "笊": 4991,
      "笋": 4992,
      "笏": 4993,
      "笑": 4994,
      "笔": 4995,
      "笕": 4996,
      "笙": 4997,
      "笛": 4998,
      "笞": 4999,
      "笠": 5000,
      "笤": 5001,
      "笥": 5002,
      "符": 5003,
      "笨": 5004,
      "笪": 5005,
      "笫": 5006,
      "第": 5007,
      "笮": 5008,
      "笳": 5009,
      "笸": 5010,
      "笺": 5011,
      "笼": 5012,
      "笾": 5013,
      "等": 5014,
      "筊": 5015,
      "筋": 5016,
      "筌": 5017,
      "筏": 5018,
      "筐": 5019,
      "筑": 5020,
      "筒": 5021,
      "答": 5022,
      "策": 5023,
      "筘": 5024,
      "筚": 5025,
      "筛": 5026,
      "筜": 5027,
      "筝": 5028,
      "筠": 5029,
      "筢": 5030,
      "筮": 5031,
      "筯": 5032,
      "筰": 5033,
      "筱": 5034,
      "筲": 5035,
      "筳": 5036,
      "筵": 5037,
      "筷": 5038,
      "筹": 5039,
      "筼": 5040,
      "签": 5041,
      "简": 5042,
      "箂": 5043,
      "箅": 5044,
      "箍": 5045,
      "箏": 5046,
      "箐": 5047,
      "箓": 5048,
      "箔": 5049,
      "箕": 5050,
      "算": 5051,
      "箜": 5052,
      "箝": 5053,
      "管": 5054,
      "箢": 5055,
      "箧": 5056,
      "箨": 5057,
      "箩": 5058,
      "箪": 5059,
      "箫": 5060,
      "箬": 5061,
      "箭": 5062,
      "箱": 5063,
      "箴": 5064,
      "箸": 5065,
      "篁": 5066,
      "篆": 5067,
      "篇": 5068,
      "築": 5069,
      "篌": 5070,
      "篑": 5071,
      "篓": 5072,
      "篙": 5073,
      "篝": 5074,
      "篡": 5075,
      "篦": 5076,
      "篪": 5077,
      "篮": 5078,
      "篱": 5079,
      "篷": 5080,
      "篼": 5081,
      "篾": 5082,
      "簇": 5083,
      "簋": 5084,
      "簌": 5085,
      "簑": 5086,
      "簔": 5087,
      "簕": 5088,
      "簟": 5089,
      "簡": 5090,
      "簧": 5091,
      "簪": 5092,
      "簫": 5093,
      "簸": 5094,
      "簿": 5095,
      "籀": 5096,
      "籁": 5097,
      "籃": 5098,
      "籅": 5099,
      "籍": 5100,
      "籙": 5101,
      "籬": 5102,
      "米": 5103,
      "籴": 5104,
      "类": 5105,
      "籼": 5106,
      "籽": 5107,
      "粃": 5108,
      "粄": 5109,
      "粉": 5110,
      "粑": 5111,
      "粒": 5112,
      "粕": 5113,
      "粗": 5114,
      "粘": 5115,
      "粜": 5116,
      "粝": 5117,
      "粟": 5118,
      "粤": 5119,
      "粥": 5120,
      "粧": 5121,
      "粪": 5122,
      "粮": 5123,
      "粱": 5124,
      "粲": 5125,
      "粳": 5126,
      "粹": 5127,
      "粼": 5128,
      "粽": 5129,
      "精": 5130,
      "粿": 5131,
      "糁": 5132,
      "糅": 5133,
      "糇": 5134,
      "糊": 5135,
      "糌": 5136,
      "糍": 5137,
      "糕": 5138,
      "糖": 5139,
      "糗": 5140,
      "糙": 5141,
      "糜": 5142,
      "糟": 5143,
      "糠": 5144,
      "糧": 5145,
      "糨": 5146,
      "糯": 5147,
      "系": 5148,
      "約": 5149,
      "紉": 5150,
      "紊": 5151,
      "納": 5152,
      "紙": 5153,
      "級": 5154,
      "紛": 5155,
      "紝": 5156,
      "素": 5157,
      "索": 5158,
      "紧": 5159,
      "紫": 5160,
      "累": 5161,
      "細": 5162,
      "紵": 5163,
      "紹": 5164,
      "紿": 5165,
      "終": 5166,
      "結": 5167,
      "絜": 5168,
      "給": 5169,
      "絨": 5170,
      "絮": 5171,
      "統": 5172,
      "絲": 5173,
      "絷": 5174,
      "綁": 5175,
      "經": 5176,
      "綝": 5177,
      "綠": 5178,
      "綦": 5179,
      "綮": 5180,
      "綴": 5181,
      "緊": 5182,
      "緌": 5183,
      "緒": 5184,
      "緩": 5185,
      "緫": 5186,
      "緻": 5187,
      "縢": 5188,
      "縫": 5189,
      "縻": 5190,
      "總": 5191,
      "績": 5192,
      "繁": 5193,
      "繇": 5194,
      "繞": 5195,
      "繩": 5196,
      "繫": 5197,
      "繼": 5198,
      "纂": 5199,
      "纆": 5200,
      "續": 5201,
      "纕": 5202,
      "纛": 5203,
      "纟": 5204,
      "纠": 5205,
      "纡": 5206,
      "红": 5207,
      "纣": 5208,
      "纤": 5209,
      "纥": 5210,
      "约": 5211,
      "级": 5212,
      "纨": 5213,
      "纪": 5214,
      "纫": 5215,
      "纬": 5216,
      "纭": 5217,
      "纮": 5218,
      "纯": 5219,
      "纰": 5220,
      "纱": 5221,
      "纲": 5222,
      "纳": 5223,
      "纴": 5224,
      "纵": 5225,
      "纶": 5226,
      "纷": 5227,
      "纸": 5228,
      "纹": 5229,
      "纺": 5230,
      "纻": 5231,
      "纽": 5232,
      "纾": 5233,
      "线": 5234,
      "绀": 5235,
      "绁": 5236,
      "绂": 5237,
      "练": 5238,
      "组": 5239,
      "绅": 5240,
      "细": 5241,
      "织": 5242,
      "终": 5243,
      "绉": 5244,
      "绊": 5245,
      "绋": 5246,
      "绌": 5247,
      "绍": 5248,
      "绎": 5249,
      "经": 5250,
      "绐": 5251,
      "绑": 5252,
      "绒": 5253,
      "结": 5254,
      "绔": 5255,
      "绕": 5256,
      "绘": 5257,
      "给": 5258,
      "绚": 5259,
      "绛": 5260,
      "络": 5261,
      "绝": 5262,
      "绞": 5263,
      "统": 5264,
      "绡": 5265,
      "绢": 5266,
      "绣": 5267,
      "绥": 5268,
      "绦": 5269,
      "继": 5270,
      "绨": 5271,
      "绩": 5272,
      "绪": 5273,
      "绫": 5274,
      "续": 5275,
      "绮": 5276,
      "绯": 5277,
      "绰": 5278,
      "绱": 5279,
      "绳": 5280,
      "维": 5281,
      "绵": 5282,
      "绶": 5283,
      "绷": 5284,
      "绸": 5285,
      "绺": 5286,
      "绻": 5287,
      "综": 5288,
      "绽": 5289,
      "绾": 5290,
      "绿": 5291,
      "缀": 5292,
      "缁": 5293,
      "缃": 5294,
      "缄": 5295,
      "缅": 5296,
      "缆": 5297,
      "缇": 5298,
      "缈": 5299,
      "缉": 5300,
      "缊": 5301,
      "缍": 5302,
      "缎": 5303,
      "缑": 5304,
      "缒": 5305,
      "缓": 5306,
      "缔": 5307,
      "缕": 5308,
      "编": 5309,
      "缗": 5310,
      "缘": 5311,
      "缙": 5312,
      "缚": 5313,
      "缛": 5314,
      "缜": 5315,
      "缝": 5316,
      "缟": 5317,
      "缠": 5318,
      "缡": 5319,
      "缢": 5320,
      "缣": 5321,
      "缤": 5322,
      "缥": 5323,
      "缦": 5324,
      "缧": 5325,
      "缨": 5326,
      "缩": 5327,
      "缪": 5328,
      "缫": 5329,
      "缬": 5330,
      "缭": 5331,
      "缮": 5332,
      "缯": 5333,
      "缰": 5334,
      "缱": 5335,
      "缲": 5336,
      "缳": 5337,
      "缴": 5338,
      "缵": 5339,
      "缶": 5340,
      "缸": 5341,
      "缺": 5342,
      "缽": 5343,
      "罂": 5344,
      "罄": 5345,
      "罅": 5346,
      "罍": 5347,
      "罐": 5348,
      "网": 5349,
      "罔": 5350,
      "罕": 5351,
      "罗": 5352,
      "罘": 5353,
      "罚": 5354,
      "罝": 5355,
      "罟": 5356,
      "罡": 5357,
      "罢": 5358,
      "罥": 5359,
      "罨": 5360,
      "罩": 5361,
      "罪": 5362,
      "置": 5363,
      "罰": 5364,
      "罱": 5365,
      "署": 5366,
      "罴": 5367,
      "罹": 5368,
      "罽": 5369,
      "罾": 5370,
      "羁": 5371,
      "羅": 5372,
      "羊": 5373,
      "羌": 5374,
      "美": 5375,
      "羑": 5376,
      "羔": 5377,
      "羚": 5378,
      "羝": 5379,
      "羞": 5380,
      "羟": 5381,
      "羡": 5382,
      "群": 5383,
      "羧": 5384,
      "羨": 5385,
      "義": 5386,
      "羯": 5387,
      "羰": 5388,
      "羲": 5389,
      "羶": 5390,
      "羸": 5391,
      "羹": 5392,
      "羽": 5393,
      "羿": 5394,
      "翀": 5395,
      "翁": 5396,
      "翃": 5397,
      "翅": 5398,
      "翊": 5399,
      "翌": 5400,
      "翎": 5401,
      "習": 5402,
      "翔": 5403,
      "翕": 5404,
      "翘": 5405,
      "翟": 5406,
      "翠": 5407,
      "翡": 5408,
      "翦": 5409,
      "翩": 5410,
      "翮": 5411,
      "翰": 5412,
      "翱": 5413,
      "翳": 5414,
      "翻": 5415,
      "翼": 5416,
      "耀": 5417,
      "老": 5418,
      "考": 5419,
      "耄": 5420,
      "者": 5421,
      "耆": 5422,
      "耋": 5423,
      "而": 5424,
      "耍": 5425,
      "耐": 5426,
      "耒": 5427,
      "耔": 5428,
      "耕": 5429,
      "耗": 5430,
      "耘": 5431,
      "耙": 5432,
      "耜": 5433,
      "耠": 5434,
      "耥": 5435,
      "耦": 5436,
      "耧": 5437,
      "耨": 5438,
      "耰": 5439,
      "耱": 5440,
      "耳": 5441,
      "耶": 5442,
      "耷": 5443,
      "耸": 5444,
      "耻": 5445,
      "耽": 5446,
      "耿": 5447,
      "聂": 5448,
      "聃": 5449,
      "聆": 5450,
      "聊": 5451,
      "聋": 5452,
      "职": 5453,
      "聒": 5454,
      "联": 5455,
      "聘": 5456,
      "聚": 5457,
      "聞": 5458,
      "聩": 5459,
      "聪": 5460,
      "聰": 5461,
      "聱": 5462,
      "聲": 5463,
      "聽": 5464,
      "聿": 5465,
      "肃": 5466,
      "肄": 5467,
      "肆": 5468,
      "肇": 5469,
      "肉": 5470,
      "肋": 5471,
      "肌": 5472,
      "肓": 5473,
      "肖": 5474,
      "肘": 5475,
      "肚": 5476,
      "肛": 5477,
      "肜": 5478,
      "肝": 5479,
      "肠": 5480,
      "股": 5481,
      "肢": 5482,
      "肤": 5483,
      "肥": 5484,
      "肩": 5485,
      "肪": 5486,
      "肫": 5487,
      "肮": 5488,
      "肯": 5489,
      "肱": 5490,
      "育": 5491,
      "肴": 5492,
      "肺": 5493,
      "肼": 5494,
      "肽": 5495,
      "肾": 5496,
      "肿": 5497,
      "胀": 5498,
      "胁": 5499,
      "胃": 5500,
      "胄": 5501,
      "胆": 5502,
      "胈": 5503,
      "背": 5504,
      "胍": 5505,
      "胎": 5506,
      "胖": 5507,
      "胗": 5508,
      "胚": 5509,
      "胛": 5510,
      "胜": 5511,
      "胝": 5512,
      "胞": 5513,
      "胡": 5514,
      "胤": 5515,
      "胥": 5516,
      "胧": 5517,
      "胨": 5518,
      "胪": 5519,
      "胫": 5520,
      "胬": 5521,
      "胭": 5522,
      "胯": 5523,
      "胰": 5524,
      "胱": 5525,
      "胳": 5526,
      "胴": 5527,
      "胶": 5528,
      "胸": 5529,
      "胺": 5530,
      "胼": 5531,
      "能": 5532,
      "脁": 5533,
      "脂": 5534,
      "脅": 5535,
      "脆": 5536,
      "脉": 5537,
      "脊": 5538,
      "脍": 5539,
      "脎": 5540,
      "脏": 5541,
      "脐": 5542,
      "脑": 5543,
      "脓": 5544,
      "脔": 5545,
      "脖": 5546,
      "脘": 5547,
      "脚": 5548,
      "脞": 5549,
      "脩": 5550,
      "脯": 5551,
      "脱": 5552,
      "脲": 5553,
      "脸": 5554,
      "脾": 5555,
      "腆": 5556,
      "腈": 5557,
      "腊": 5558,
      "腋": 5559,
      "腌": 5560,
      "腐": 5561,
      "腑": 5562,
      "腓": 5563,
      "腔": 5564,
      "腕": 5565,
      "腚": 5566,
      "腥": 5567,
      "腦": 5568,
      "腩": 5569,
      "腭": 5570,
      "腮": 5571,
      "腰": 5572,
      "腱": 5573,
      "腳": 5574,
      "腴": 5575,
      "腸": 5576,
      "腹": 5577,
      "腺": 5578,
      "腻": 5579,
      "腼": 5580,
      "腾": 5581,
      "腿": 5582,
      "膀": 5583,
      "膂": 5584,
      "膈": 5585,
      "膊": 5586,
      "膏": 5587,
      "膑": 5588,
      "膘": 5589,
      "膛": 5590,
      "膜": 5591,
      "膝": 5592,
      "膦": 5593,
      "膨": 5594,
      "膳": 5595,
      "膺": 5596,
      "膻": 5597,
      "膽": 5598,
      "臀": 5599,
      "臂": 5600,
      "臃": 5601,
      "臆": 5602,
      "臉": 5603,
      "臊": 5604,
      "臌": 5605,
      "臜": 5606,
      "臣": 5607,
      "臧": 5608,
      "自": 5609,
      "臬": 5610,
      "臭": 5611,
      "至": 5612,
      "致": 5613,
      "臻": 5614,
      "臼": 5615,
      "臾": 5616,
      "舀": 5617,
      "舁": 5618,
      "舂": 5619,
      "舄": 5620,
      "舅": 5621,
      "舆": 5622,
      "與": 5623,
      "興": 5624,
      "舊": 5625,
      "舌": 5626,
      "舍": 5627,
      "舐": 5628,
      "舒": 5629,
      "舔": 5630,
      "舖": 5631,
      "舛": 5632,
      "舜": 5633,
      "舞": 5634,
      "舟": 5635,
      "舡": 5636,
      "舢": 5637,
      "舨": 5638,
      "航": 5639,
      "舫": 5640,
      "般": 5641,
      "舰": 5642,
      "舱": 5643,
      "舳": 5644,
      "舴": 5645,
      "舵": 5646,
      "舶": 5647,
      "舷": 5648,
      "舸": 5649,
      "船": 5650,
      "舻": 5651,
      "艄": 5652,
      "艇": 5653,
      "艉": 5654,
      "艋": 5655,
      "艏": 5656,
      "艘": 5657,
      "艮": 5658,
      "良": 5659,
      "艰": 5660,
      "艱": 5661,
      "色": 5662,
      "艳": 5663,
      "艹": 5664,
      "艺": 5665,
      "艾": 5666,
      "艿": 5667,
      "节": 5668,
      "芃": 5669,
      "芄": 5670,
      "芈": 5671,
      "芊": 5672,
      "芋": 5673,
      "芍": 5674,
      "芒": 5675,
      "芘": 5676,
      "芙": 5677,
      "芜": 5678,
      "芝": 5679,
      "芡": 5680,
      "芣": 5681,
      "芥": 5682,
      "芦": 5683,
      "芧": 5684,
      "芨": 5685,
      "芩": 5686,
      "芪": 5687,
      "芫": 5688,
      "芬": 5689,
      "芭": 5690,
      "芮": 5691,
      "芯": 5692,
      "芰": 5693,
      "花": 5694,
      "芳": 5695,
      "芴": 5696,
      "芷": 5697,
      "芸": 5698,
      "芹": 5699,
      "芼": 5700,
      "芽": 5701,
      "芾": 5702,
      "苁": 5703,
      "苄": 5704,
      "苇": 5705,
      "苈": 5706,
      "苋": 5707,
      "苌": 5708,
      "苍": 5709,
      "苎": 5710,
      "苏": 5711,
      "苑": 5712,
      "苒": 5713,
      "苓": 5714,
      "苔": 5715,
      "苕": 5716,
      "苗": 5717,
      "苘": 5718,
      "苛": 5719,
      "苜": 5720,
      "苞": 5721,
      "苟": 5722,
      "苡": 5723,
      "苢": 5724,
      "苣": 5725,
      "苤": 5726,
      "若": 5727,
      "苦": 5728,
      "苧": 5729,
      "苫": 5730,
      "苯": 5731,
      "英": 5732,
      "苲": 5733,
      "苴": 5734,
      "苷": 5735,
      "苹": 5736,
      "苻": 5737,
      "茁": 5738,
      "茂": 5739,
      "范": 5740,
      "茄": 5741,
      "茅": 5742,
      "茆": 5743,
      "茉": 5744,
      "茌": 5745,
      "茍": 5746,
      "茎": 5747,
      "茏": 5748,
      "茔": 5749,
      "茕": 5750,
      "茗": 5751,
      "茚": 5752,
      "茛": 5753,
      "茜": 5754,
      "茧": 5755,
      "茨": 5756,
      "茫": 5757,
      "茬": 5758,
      "茭": 5759,
      "茯": 5760,
      "茱": 5761,
      "茴": 5762,
      "茵": 5763,
      "茶": 5764,
      "茷": 5765,
      "茸": 5766,
      "茹": 5767,
      "茼": 5768,
      "荀": 5769,
      "荃": 5770,
      "荅": 5771,
      "荆": 5772,
      "荇": 5773,
      "草": 5774,
      "荏": 5775,
      "荐": 5776,
      "荑": 5777,
      "荒": 5778,
      "荔": 5779,
      "荖": 5780,
      "荘": 5781,
      "荚": 5782,
      "荛": 5783,
      "荜": 5784,
      "荞": 5785,
      "荟": 5786,
      "荠": 5787,
      "荡": 5788,
      "荣": 5789,
      "荤": 5790,
      "荥": 5791,
      "荦": 5792,
      "荧": 5793,
      "荨": 5794,
      "荩": 5795,
      "荪": 5796,
      "荫": 5797,
      "药": 5798,
      "荳": 5799,
      "荷": 5800,
      "荸": 5801,
      "荻": 5802,
      "荼": 5803,
      "荽": 5804,
      "莅": 5805,
      "莆": 5806,
      "莉": 5807,
      "莊": 5808,
      "莎": 5809,
      "莑": 5810,
      "莒": 5811,
      "莓": 5812,
      "莘": 5813,
      "莜": 5814,
      "莞": 5815,
      "莠": 5816,
      "莨": 5817,
      "莩": 5818,
      "莪": 5819,
      "莫": 5820,
      "莱": 5821,
      "莲": 5822,
      "莳": 5823,
      "莴": 5824,
      "获": 5825,
      "莸": 5826,
      "莹": 5827,
      "莺": 5828,
      "莽": 5829,
      "菀": 5830,
      "菁": 5831,
      "菅": 5832,
      "菇": 5833,
      "菊": 5834,
      "菋": 5835,
      "菌": 5836,
      "菏": 5837,
      "菑": 5838,
      "菔": 5839,
      "菖": 5840,
      "菘": 5841,
      "菜": 5842,
      "菟": 5843,
      "菠": 5844,
      "菡": 5845,
      "菩": 5846,
      "菪": 5847,
      "菰": 5848,
      "菱": 5849,
      "菲": 5850,
      "菸": 5851,
      "菹": 5852,
      "菽": 5853,
      "萁": 5854,
      "萃": 5855,
      "萄": 5856,
      "萊": 5857,
      "萋": 5858,
      "萌": 5859,
      "萍": 5860,
      "萎": 5861,
      "萏": 5862,
      "萑": 5863,
      "萘": 5864,
      "萜": 5865,
      "萝": 5866,
      "萡": 5867,
      "萤": 5868,
      "营": 5869,
      "萦": 5870,
      "萧": 5871,
      "萨": 5872,
      "萩": 5873,
      "萬": 5874,
      "萱": 5875,
      "萸": 5876,
      "萼": 5877,
      "落": 5878,
      "葁": 5879,
      "葆": 5880,
      "葉": 5881,
      "葎": 5882,
      "葑": 5883,
      "葖": 5884,
      "著": 5885,
      "葚": 5886,
      "葛": 5887,
      "葡": 5888,
      "董": 5889,
      "葩": 5890,
      "葫": 5891,
      "葬": 5892,
      "葭": 5893,
      "葱": 5894,
      "葳": 5895,
      "葵": 5896,
      "葺": 5897,
      "蒂": 5898,
      "蒋": 5899,
      "蒌": 5900,
      "蒖": 5901,
      "蒙": 5902,
      "蒜": 5903,
      "蒡": 5904,
      "蒯": 5905,
      "蒱": 5906,
      "蒲": 5907,
      "蒴": 5908,
      "蒸": 5909,
      "蒹": 5910,
      "蒺": 5911,
      "蒼": 5912,
      "蒽": 5913,
      "蒿": 5914,
      "蓁": 5915,
      "蓄": 5916,
      "蓆": 5917,
      "蓇": 5918,
      "蓉": 5919,
      "蓊": 5920,
      "蓋": 5921,
      "蓍": 5922,
      "蓐": 5923,
      "蓑": 5924,
      "蓓": 5925,
      "蓖": 5926,
      "蓝": 5927,
      "蓞": 5928,
      "蓟": 5929,
      "蓠": 5930,
      "蓥": 5931,
      "蓦": 5932,
      "蓬": 5933,
      "蓴": 5934,
      "蓺": 5935,
      "蓼": 5936,
      "蓿": 5937,
      "蔌": 5938,
      "蔑": 5939,
      "蔓": 5940,
      "蔗": 5941,
      "蔘": 5942,
      "蔚": 5943,
      "蔡": 5944,
      "蔥": 5945,
      "蔫": 5946,
      "蔬": 5947,
      "蔭": 5948,
      "蔷": 5949,
      "蔸": 5950,
      "蔹": 5951,
      "蔺": 5952,
      "蔻": 5953,
      "蔼": 5954,
      "蔽": 5955,
      "蕃": 5956,
      "蕈": 5957,
      "蕉": 5958,
      "蕊": 5959,
      "蕖": 5960,
      "蕙": 5961,
      "蕡": 5962,
      "蕤": 5963,
      "蕨": 5964,
      "蕩": 5965,
      "蕲": 5966,
      "蕴": 5967,
      "蕺": 5968,
      "蕻": 5969,
      "蕾": 5970,
      "薄": 5971,
      "薅": 5972,
      "薇": 5973,
      "薏": 5974,
      "薛": 5975,
      "薜": 5976,
      "薠": 5977,
      "薤": 5978,
      "薨": 5979,
      "薩": 5980,
      "薪": 5981,
      "薮": 5982,
      "薯": 5983,
      "薰": 5984,
      "薷": 5985,
      "薹": 5986,
      "藁": 5987,
      "藉": 5988,
      "藍": 5989,
      "藏": 5990,
      "藐": 5991,
      "藓": 5992,
      "藕": 5993,
      "藜": 5994,
      "藤": 5995,
      "藩": 5996,
      "藴": 5997,
      "藻": 5998,
      "藿": 5999,
      "蘅": 6000,
      "蘋": 6001,
      "蘑": 6002,
      "蘖": 6003,
      "蘩": 6004,
      "蘭": 6005,
      "蘸": 6006,
      "蘼": 6007,
      "虍": 6008,
      "虎": 6009,
      "虏": 6010,
      "虐": 6011,
      "虑": 6012,
      "虔": 6013,
      "處": 6014,
      "虚": 6015,
      "虛": 6016,
      "虞": 6017,
      "號": 6018,
      "虢": 6019,
      "虫": 6020,
      "虬": 6021,
      "虱": 6022,
      "虹": 6023,
      "虺": 6024,
      "虻": 6025,
      "虽": 6026,
      "虾": 6027,
      "虿": 6028,
      "蚀": 6029,
      "蚁": 6030,
      "蚂": 6031,
      "蚊": 6032,
      "蚋": 6033,
      "蚌": 6034,
      "蚓": 6035,
      "蚕": 6036,
      "蚜": 6037,
      "蚝": 6038,
      "蚠": 6039,
      "蚡": 6040,
      "蚣": 6041,
      "蚤": 6042,
      "蚧": 6043,
      "蚨": 6044,
      "蚩": 6045,
      "蚪": 6046,
      "蚬": 6047,
      "蚯": 6048,
      "蚰": 6049,
      "蚱": 6050,
      "蚴": 6051,
      "蚵": 6052,
      "蚶": 6053,
      "蚹": 6054,
      "蛀": 6055,
      "蛄": 6056,
      "蛆": 6057,
      "蛇": 6058,
      "蛈": 6059,
      "蛉": 6060,
      "蛊": 6061,
      "蛋": 6062,
      "蛎": 6063,
      "蛏": 6064,
      "蛐": 6065,
      "蛑": 6066,
      "蛔": 6067,
      "蛙": 6068,
      "蛛": 6069,
      "蛞": 6070,
      "蛟": 6071,
      "蛤": 6072,
      "蛩": 6073,
      "蛭": 6074,
      "蛮": 6075,
      "蛰": 6076,
      "蛱": 6077,
      "蛲": 6078,
      "蛳": 6079,
      "蛴": 6080,
      "蛸": 6081,
      "蛹": 6082,
      "蛾": 6083,
      "蜀": 6084,
      "蜂": 6085,
      "蜃": 6086,
      "蜇": 6087,
      "蜈": 6088,
      "蜉": 6089,
      "蜊": 6090,
      "蜍": 6091,
      "蜒": 6092,
      "蜓": 6093,
      "蜕": 6094,
      "蜗": 6095,
      "蜘": 6096,
      "蜚": 6097,
      "蜜": 6098,
      "蜡": 6099,
      "蜢": 6100,
      "蜣": 6101,
      "蜥": 6102,
      "蜩": 6103,
      "蜮": 6104,
      "蜴": 6105,
      "蜷": 6106,
      "蜻": 6107,
      "蜼": 6108,
      "蜿": 6109,
      "蝇": 6110,
      "蝈": 6111,
      "蝉": 6112,
      "蝌": 6113,
      "蝎": 6114,
      "蝓": 6115,
      "蝗": 6116,
      "蝙": 6117,
      "蝠": 6118,
      "蝣": 6119,
      "蝤": 6120,
      "蝥": 6121,
      "蝮": 6122,
      "蝰": 6123,
      "蝴": 6124,
      "蝶": 6125,
      "蝸": 6126,
      "蝻": 6127,
      "蝼": 6128,
      "蝽": 6129,
      "蝾": 6130,
      "螂": 6131,
      "螃": 6132,
      "螅": 6133,
      "螈": 6134,
      "螋": 6135,
      "融": 6136,
      "螓": 6137,
      "螟": 6138,
      "螣": 6139,
      "螨": 6140,
      "螫": 6141,
      "螬": 6142,
      "螭": 6143,
      "螯": 6144,
      "螳": 6145,
      "螵": 6146,
      "螺": 6147,
      "螾": 6148,
      "蟀": 6149,
      "蟆": 6150,
      "蟊": 6151,
      "蟋": 6152,
      "蟑": 6153,
      "蟒": 6154,
      "蟜": 6155,
      "蟠": 6156,
      "蟥": 6157,
      "蟦": 6158,
      "蟪": 6159,
      "蟮": 6160,
      "蟲": 6161,
      "蟹": 6162,
      "蟺": 6163,
      "蟾": 6164,
      "蠃": 6165,
      "蠋": 6166,
      "蠕": 6167,
      "蠖": 6168,
      "蠟": 6169,
      "蠡": 6170,
      "蠢": 6171,
      "蠵": 6172,
      "蠹": 6173,
      "蠼": 6174,
      "血": 6175,
      "衅": 6176,
      "行": 6177,
      "衍": 6178,
      "術": 6179,
      "衔": 6180,
      "街": 6181,
      "衙": 6182,
      "衝": 6183,
      "衡": 6184,
      "衢": 6185,
      "衣": 6186,
      "衤": 6187,
      "补": 6188,
      "表": 6189,
      "衩": 6190,
      "衫": 6191,
      "衬": 6192,
      "衮": 6193,
      "衰": 6194,
      "衲": 6195,
      "衷": 6196,
      "衹": 6197,
      "衽": 6198,
      "衾": 6199,
      "衿": 6200,
      "袁": 6201,
      "袂": 6202,
      "袄": 6203,
      "袅": 6204,
      "袆": 6205,
      "袈": 6206,
      "袋": 6207,
      "袍": 6208,
      "袒": 6209,
      "袓": 6210,
      "袖": 6211,
      "袜": 6212,
      "袢": 6213,
      "袤": 6214,
      "袪": 6215,
      "被": 6216,
      "袭": 6217,
      "袱": 6218,
      "袴": 6219,
      "袷": 6220,
      "袺": 6221,
      "袼": 6222,
      "袿": 6223,
      "裀": 6224,
      "裁": 6225,
      "裂": 6226,
      "装": 6227,
      "裆": 6228,
      "裉": 6229,
      "裌": 6230,
      "裏": 6231,
      "裒": 6232,
      "裔": 6233,
      "裕": 6234,
      "裘": 6235,
      "裙": 6236,
      "補": 6237,
      "裝": 6238,
      "裟": 6239,
      "裡": 6240,
      "裢": 6241,
      "裣": 6242,
      "裤": 6243,
      "裥": 6244,
      "裨": 6245,
      "裰": 6246,
      "裱": 6247,
      "裳": 6248,
      "裴": 6249,
      "裸": 6250,
      "裹": 6251,
      "裼": 6252,
      "製": 6253,
      "裾": 6254,
      "褂": 6255,
      "褋": 6256,
      "褐": 6257,
      "褒": 6258,
      "褓": 6259,
      "褔": 6260,
      "褙": 6261,
      "褚": 6262,
      "褛": 6263,
      "褡": 6264,
      "褥": 6265,
      "褪": 6266,
      "褫": 6267,
      "褰": 6268,
      "褴": 6269,
      "褶": 6270,
      "襁": 6271,
      "襄": 6272,
      "襜": 6273,
      "襞": 6274,
      "襟": 6275,
      "襦": 6276,
      "襻": 6277,
      "西": 6278,
      "要": 6279,
      "覃": 6280,
      "覆": 6281,
      "見": 6282,
      "規": 6283,
      "視": 6284,
      "親": 6285,
      "覺": 6286,
      "见": 6287,
      "观": 6288,
      "规": 6289,
      "觅": 6290,
      "视": 6291,
      "觇": 6292,
      "览": 6293,
      "觉": 6294,
      "觊": 6295,
      "觌": 6296,
      "觍": 6297,
      "觎": 6298,
      "觐": 6299,
      "觑": 6300,
      "角": 6301,
      "觚": 6302,
      "觞": 6303,
      "解": 6304,
      "觥": 6305,
      "触": 6306,
      "觯": 6307,
      "觽": 6308,
      "觿": 6309,
      "言": 6310,
      "訇": 6311,
      "計": 6312,
      "討": 6313,
      "訓": 6314,
      "記": 6315,
      "訚": 6316,
      "訞": 6317,
      "訢": 6318,
      "訣": 6319,
      "許": 6320,
      "訴": 6321,
      "註": 6322,
      "訾": 6323,
      "詈": 6324,
      "詝": 6325,
      "試": 6326,
      "詨": 6327,
      "詭": 6328,
      "話": 6329,
      "該": 6330,
      "詹": 6331,
      "誉": 6332,
      "誊": 6333,
      "誌": 6334,
      "認": 6335,
      "誎": 6336,
      "誓": 6337,
      "誘": 6338,
      "語": 6339,
      "說": 6340,
      "誰": 6341,
      "課": 6342,
      "調": 6343,
      "談": 6344,
      "請": 6345,
      "諌": 6346,
      "諒": 6347,
      "論": 6348,
      "諲": 6349,
      "諳": 6350,
      "諾": 6351,
      "謇": 6352,
      "謊": 6353,
      "謋": 6354,
      "謎": 6355,
      "謚": 6356,
      "講": 6357,
      "謝": 6358,
      "謟": 6359,
      "譓": 6360,
      "識": 6361,
      "譞": 6362,
      "警": 6363,
      "譬": 6364,
      "護": 6365,
      "讀": 6366,
      "變": 6367,
      "讌": 6368,
      "讓": 6369,
      "讙": 6370,
      "讠": 6371,
      "计": 6372,
      "订": 6373,
      "讣": 6374,
      "认": 6375,
      "讥": 6376,
      "讦": 6377,
      "讧": 6378,
      "讨": 6379,
      "让": 6380,
      "讪": 6381,
      "讫": 6382,
      "讬": 6383,
      "训": 6384,
      "议": 6385,
      "讯": 6386,
      "记": 6387,
      "讱": 6388,
      "讲": 6389,
      "讳": 6390,
      "讴": 6391,
      "讵": 6392,
      "讶": 6393,
      "讷": 6394,
      "许": 6395,
      "讹": 6396,
      "论": 6397,
      "讼": 6398,
      "讽": 6399,
      "设": 6400,
      "访": 6401,
      "诀": 6402,
      "证": 6403,
      "诂": 6404,
      "诃": 6405,
      "评": 6406,
      "诅": 6407,
      "识": 6408,
      "诈": 6409,
      "诉": 6410,
      "诊": 6411,
      "诋": 6412,
      "诌": 6413,
      "词": 6414,
      "诎": 6415,
      "诏": 6416,
      "译": 6417,
      "诒": 6418,
      "诓": 6419,
      "诔": 6420,
      "试": 6421,
      "诗": 6422,
      "诘": 6423,
      "诙": 6424,
      "诚": 6425,
      "诛": 6426,
      "诜": 6427,
      "话": 6428,
      "诞": 6429,
      "诟": 6430,
      "诠": 6431,
      "诡": 6432,
      "询": 6433,
      "诣": 6434,
      "诤": 6435,
      "该": 6436,
      "详": 6437,
      "诧": 6438,
      "诨": 6439,
      "诩": 6440,
      "诫": 6441,
      "诬": 6442,
      "语": 6443,
      "诮": 6444,
      "误": 6445,
      "诰": 6446,
      "诱": 6447,
      "诲": 6448,
      "诳": 6449,
      "说": 6450,
      "诵": 6451,
      "诶": 6452,
      "请": 6453,
      "诸": 6454,
      "诹": 6455,
      "诺": 6456,
      "读": 6457,
      "诼": 6458,
      "诽": 6459,
      "课": 6460,
      "诿": 6461,
      "谀": 6462,
      "谁": 6463,
      "谂": 6464,
      "调": 6465,
      "谄": 6466,
      "谅": 6467,
      "谆": 6468,
      "谇": 6469,
      "谈": 6470,
      "谊": 6471,
      "谋": 6472,
      "谌": 6473,
      "谍": 6474,
      "谎": 6475,
      "谏": 6476,
      "谐": 6477,
      "谑": 6478,
      "谒": 6479,
      "谓": 6480,
      "谔": 6481,
      "谕": 6482,
      "谖": 6483,
      "谗": 6484,
      "谘": 6485,
      "谙": 6486,
      "谚": 6487,
      "谛": 6488,
      "谜": 6489,
      "谝": 6490,
      "谟": 6491,
      "谠": 6492,
      "谡": 6493,
      "谢": 6494,
      "谣": 6495,
      "谤": 6496,
      "谥": 6497,
      "谦": 6498,
      "谧": 6499,
      "谨": 6500,
      "谩": 6501,
      "谪": 6502,
      "谬": 6503,
      "谭": 6504,
      "谮": 6505,
      "谯": 6506,
      "谰": 6507,
      "谱": 6508,
      "谲": 6509,
      "谳": 6510,
      "谴": 6511,
      "谵": 6512,
      "谶": 6513,
      "谷": 6514,
      "谿": 6515,
      "豁": 6516,
      "豆": 6517,
      "豇": 6518,
      "豉": 6519,
      "豊": 6520,
      "豌": 6521,
      "豐": 6522,
      "豕": 6523,
      "豖": 6524,
      "豗": 6525,
      "豚": 6526,
      "象": 6527,
      "豢": 6528,
      "豪": 6529,
      "豫": 6530,
      "豬": 6531,
      "豳": 6532,
      "豸": 6533,
      "豹": 6534,
      "豺": 6535,
      "貂": 6536,
      "貅": 6537,
      "貉": 6538,
      "貌": 6539,
      "貎": 6540,
      "貐": 6541,
      "貓": 6542,
      "貔": 6543,
      "貘": 6544,
      "貙": 6545,
      "貝": 6546,
      "貨": 6547,
      "販": 6548,
      "貪": 6549,
      "貶": 6550,
      "買": 6551,
      "貼": 6552,
      "資": 6553,
      "賠": 6554,
      "賣": 6555,
      "賦": 6556,
      "賬": 6557,
      "賴": 6558,
      "賺": 6559,
      "賽": 6560,
      "贏": 6561,
      "贝": 6562,
      "贞": 6563,
      "负": 6564,
      "贡": 6565,
      "财": 6566,
      "责": 6567,
      "贤": 6568,
      "败": 6569,
      "账": 6570,
      "货": 6571,
      "质": 6572,
      "贩": 6573,
      "贪": 6574,
      "贫": 6575,
      "贬": 6576,
      "购": 6577,
      "贮": 6578,
      "贯": 6579,
      "贰": 6580,
      "贱": 6581,
      "贲": 6582,
      "贳": 6583,
      "贴": 6584,
      "贵": 6585,
      "贷": 6586,
      "贸": 6587,
      "费": 6588,
      "贺": 6589,
      "贻": 6590,
      "贼": 6591,
      "贽": 6592,
      "贾": 6593,
      "贿": 6594,
      "赀": 6595,
      "赁": 6596,
      "赂": 6597,
      "赃": 6598,
      "资": 6599,
      "赅": 6600,
      "赈": 6601,
      "赉": 6602,
      "赊": 6603,
      "赋": 6604,
      "赌": 6605,
      "赍": 6606,
      "赎": 6607,
      "赏": 6608,
      "赐": 6609,
      "赑": 6610,
      "赓": 6611,
      "赔": 6612,
      "赕": 6613,
      "赖": 6614,
      "赘": 6615,
      "赙": 6616,
      "赚": 6617,
      "赛": 6618,
      "赝": 6619,
      "赞": 6620,
      "赟": 6621,
      "赠": 6622,
      "赡": 6623,
      "赢": 6624,
      "赣": 6625,
      "赤": 6626,
      "赦": 6627,
      "赧": 6628,
      "赩": 6629,
      "赪": 6630,
      "赫": 6631,
      "赭": 6632,
      "走": 6633,
      "赳": 6634,
      "赴": 6635,
      "赵": 6636,
      "赶": 6637,
      "起": 6638,
      "赿": 6639,
      "趁": 6640,
      "趄": 6641,
      "超": 6642,
      "越": 6643,
      "趋": 6644,
      "趑": 6645,
      "趔": 6646,
      "趕": 6647,
      "趟": 6648,
      "趣": 6649,
      "足": 6650,
      "趴": 6651,
      "趵": 6652,
      "趸": 6653,
      "趺": 6654,
      "趼": 6655,
      "趾": 6656,
      "趿": 6657,
      "跂": 6658,
      "跃": 6659,
      "跄": 6660,
      "跆": 6661,
      "跋": 6662,
      "跌": 6663,
      "跎": 6664,
      "跏": 6665,
      "跐": 6666,
      "跑": 6667,
      "跖": 6668,
      "跗": 6669,
      "跘": 6670,
      "跚": 6671,
      "跛": 6672,
      "距": 6673,
      "跞": 6674,
      "跟": 6675,
      "跡": 6676,
      "跣": 6677,
      "跤": 6678,
      "跨": 6679,
      "跩": 6680,
      "跪": 6681,
      "跫": 6682,
      "跬": 6683,
      "路": 6684,
      "跳": 6685,
      "践": 6686,
      "跶": 6687,
      "跷": 6688,
      "跸": 6689,
      "跹": 6690,
      "跺": 6691,
      "跻": 6692,
      "跽": 6693,
      "踅": 6694,
      "踉": 6695,
      "踊": 6696,
      "踌": 6697,
      "踏": 6698,
      "踝": 6699,
      "踞": 6700,
      "踟": 6701,
      "踡": 6702,
      "踢": 6703,
      "踣": 6704,
      "踦": 6705,
      "踩": 6706,
      "踪": 6707,
      "踫": 6708,
      "踬": 6709,
      "踮": 6710,
      "踯": 6711,
      "踰": 6712,
      "踱": 6713,
      "踵": 6714,
      "踹": 6715,
      "踺": 6716,
      "踼": 6717,
      "踽": 6718,
      "蹀": 6719,
      "蹁": 6720,
      "蹂": 6721,
      "蹄": 6722,
      "蹇": 6723,
      "蹈": 6724,
      "蹉": 6725,
      "蹊": 6726,
      "蹋": 6727,
      "蹑": 6728,
      "蹒": 6729,
      "蹓": 6730,
      "蹙": 6731,
      "蹚": 6732,
      "蹞": 6733,
      "蹤": 6734,
      "蹦": 6735,
      "蹩": 6736,
      "蹬": 6737,
      "蹭": 6738,
      "蹯": 6739,
      "蹰": 6740,
      "蹲": 6741,
      "蹴": 6742,
      "蹶": 6743,
      "蹼": 6744,
      "蹿": 6745,
      "躁": 6746,
      "躅": 6747,
      "躇": 6748,
      "躍": 6749,
      "躏": 6750,
      "躐": 6751,
      "躞": 6752,
      "身": 6753,
      "躬": 6754,
      "躯": 6755,
      "躲": 6756,
      "躺": 6757,
      "車": 6758,
      "軎": 6759,
      "軏": 6760,
      "較": 6761,
      "載": 6762,
      "輕": 6763,
      "輗": 6764,
      "輛": 6765,
      "輪": 6766,
      "輮": 6767,
      "輶": 6768,
      "輸": 6769,
      "轆": 6770,
      "轜": 6771,
      "车": 6772,
      "轧": 6773,
      "轨": 6774,
      "轩": 6775,
      "转": 6776,
      "轭": 6777,
      "轮": 6778,
      "软": 6779,
      "轰": 6780,
      "轱": 6781,
      "轲": 6782,
      "轳": 6783,
      "轴": 6784,
      "轶": 6785,
      "轸": 6786,
      "轺": 6787,
      "轻": 6788,
      "轼": 6789,
      "载": 6790,
      "轾": 6791,
      "轿": 6792,
      "辀": 6793,
      "辂": 6794,
      "较": 6795,
      "辄": 6796,
      "辅": 6797,
      "辆": 6798,
      "辇": 6799,
      "辈": 6800,
      "辉": 6801,
      "辊": 6802,
      "辋": 6803,
      "辍": 6804,
      "辎": 6805,
      "辏": 6806,
      "辐": 6807,
      "辑": 6808,
      "输": 6809,
      "辔": 6810,
      "辕": 6811,
      "辖": 6812,
      "辗": 6813,
      "辘": 6814,
      "辙": 6815,
      "辚": 6816,
      "辛": 6817,
      "辜": 6818,
      "辞": 6819,
      "辟": 6820,
      "辣": 6821,
      "辦": 6822,
      "辧": 6823,
      "辨": 6824,
      "辩": 6825,
      "辫": 6826,
      "辰": 6827,
      "辱": 6828,
      "農": 6829,
      "辶": 6830,
      "边": 6831,
      "辽": 6832,
      "达": 6833,
      "迁": 6834,
      "迂": 6835,
      "迄": 6836,
      "迅": 6837,
      "过": 6838,
      "迈": 6839,
      "迎": 6840,
      "运": 6841,
      "近": 6842,
      "迓": 6843,
      "返": 6844,
      "迖": 6845,
      "还": 6846,
      "这": 6847,
      "进": 6848,
      "远": 6849,
      "违": 6850,
      "连": 6851,
      "迟": 6852,
      "迢": 6853,
      "迤": 6854,
      "迥": 6855,
      "迦": 6856,
      "迨": 6857,
      "迩": 6858,
      "迪": 6859,
      "迫": 6860,
      "迭": 6861,
      "述": 6862,
      "迳": 6863,
      "迴": 6864,
      "迷": 6865,
      "迸": 6866,
      "迹": 6867,
      "追": 6868,
      "退": 6869,
      "送": 6870,
      "适": 6871,
      "逃": 6872,
      "逄": 6873,
      "逅": 6874,
      "逆": 6875,
      "选": 6876,
      "逊": 6877,
      "逋": 6878,
      "逍": 6879,
      "透": 6880,
      "逐": 6881,
      "逑": 6882,
      "递": 6883,
      "途": 6884,
      "逖": 6885,
      "逗": 6886,
      "這": 6887,
      "通": 6888,
      "逛": 6889,
      "逝": 6890,
      "逞": 6891,
      "速": 6892,
      "造": 6893,
      "逡": 6894,
      "逢": 6895,
      "連": 6896,
      "逦": 6897,
      "逮": 6898,
      "進": 6899,
      "逵": 6900,
      "逶": 6901,
      "逸": 6902,
      "逻": 6903,
      "逼": 6904,
      "逾": 6905,
      "遁": 6906,
      "遂": 6907,
      "遄": 6908,
      "遇": 6909,
      "遊": 6910,
      "運": 6911,
      "遍": 6912,
      "過": 6913,
      "遏": 6914,
      "遐": 6915,
      "遑": 6916,
      "遒": 6917,
      "道": 6918,
      "達": 6919,
      "遗": 6920,
      "遛": 6921,
      "遠": 6922,
      "遢": 6923,
      "遣": 6924,
      "遥": 6925,
      "遨": 6926,
      "適": 6927,
      "遭": 6928,
      "遮": 6929,
      "遴": 6930,
      "遵": 6931,
      "選": 6932,
      "遹": 6933,
      "遺": 6934,
      "遽": 6935,
      "避": 6936,
      "邀": 6937,
      "邂": 6938,
      "邃": 6939,
      "還": 6940,
      "邈": 6941,
      "邊": 6942,
      "邋": 6943,
      "邑": 6944,
      "邓": 6945,
      "邕": 6946,
      "邗": 6947,
      "邙": 6948,
      "邛": 6949,
      "邝": 6950,
      "邠": 6951,
      "邡": 6952,
      "邢": 6953,
      "那": 6954,
      "邦": 6955,
      "邪": 6956,
      "邬": 6957,
      "邮": 6958,
      "邯": 6959,
      "邰": 6960,
      "邱": 6961,
      "邳": 6962,
      "邵": 6963,
      "邶": 6964,
      "邸": 6965,
      "邹": 6966,
      "邺": 6967,
      "邻": 6968,
      "邽": 6969,
      "邾": 6970,
      "郁": 6971,
      "郄": 6972,
      "郅": 6973,
      "郇": 6974,
      "郊": 6975,
      "郎": 6976,
      "郑": 6977,
      "郓": 6978,
      "郗": 6979,
      "郜": 6980,
      "郝": 6981,
      "郞": 6982,
      "郡": 6983,
      "郢": 6984,
      "郤": 6985,
      "郦": 6986,
      "郧": 6987,
      "部": 6988,
      "郪": 6989,
      "郫": 6990,
      "郭": 6991,
      "郯": 6992,
      "郴": 6993,
      "郸": 6994,
      "都": 6995,
      "郾": 6996,
      "郿": 6997,
      "鄂": 6998,
      "鄃": 6999,
      "鄉": 7000,
      "鄐": 7001,
      "鄙": 7002,
      "鄚": 7003,
      "鄜": 7004,
      "鄞": 7005,
      "鄠": 7006,
      "鄢": 7007,
      "鄣": 7008,
      "鄮": 7009,
      "鄯": 7010,
      "鄰": 7011,
      "鄱": 7012,
      "酂": 7013,
      "酉": 7014,
      "酊": 7015,
      "酋": 7016,
      "酌": 7017,
      "配": 7018,
      "酎": 7019,
      "酐": 7020,
      "酒": 7021,
      "酖": 7022,
      "酗": 7023,
      "酚": 7024,
      "酝": 7025,
      "酞": 7026,
      "酡": 7027,
      "酢": 7028,
      "酣": 7029,
      "酥": 7030,
      "酩": 7031,
      "酪": 7032,
      "酬": 7033,
      "酮": 7034,
      "酯": 7035,
      "酰": 7036,
      "酱": 7037,
      "酲": 7038,
      "酵": 7039,
      "酶": 7040,
      "酷": 7041,
      "酸": 7042,
      "酹": 7043,
      "酽": 7044,
      "酾": 7045,
      "酿": 7046,
      "醅": 7047,
      "醇": 7048,
      "醉": 7049,
      "醊": 7050,
      "醋": 7051,
      "醌": 7052,
      "醍": 7053,
      "醐": 7054,
      "醒": 7055,
      "醚": 7056,
      "醛": 7057,
      "醢": 7058,
      "醨": 7059,
      "醪": 7060,
      "醫": 7061,
      "醬": 7062,
      "醭": 7063,
      "醮": 7064,
      "醴": 7065,
      "醵": 7066,
      "醺": 7067,
      "釂": 7068,
      "釆": 7069,
      "采": 7070,
      "釉": 7071,
      "释": 7072,
      "釋": 7073,
      "里": 7074,
      "重": 7075,
      "野": 7076,
      "量": 7077,
      "釐": 7078,
      "金": 7079,
      "釘": 7080,
      "釜": 7081,
      "針": 7082,
      "釦": 7083,
      "鈅": 7084,
      "鈒": 7085,
      "鈚": 7086,
      "鈡": 7087,
      "鉆": 7088,
      "鉴": 7089,
      "鉶": 7090,
      "銀": 7091,
      "銑": 7092,
      "銛": 7093,
      "銮": 7094,
      "銶": 7095,
      "鋒": 7096,
      "鋤": 7097,
      "鋪": 7098,
      "錁": 7099,
      "錄": 7100,
      "錉": 7101,
      "錒": 7102,
      "錡": 7103,
      "錢": 7104,
      "錤": 7105,
      "錯": 7106,
      "録": 7107,
      "錾": 7108,
      "鍋": 7109,
      "鍘": 7110,
      "鍛": 7111,
      "鍪": 7112,
      "鎂": 7113,
      "鎏": 7114,
      "鎮": 7115,
      "鎻": 7116,
      "鏈": 7117,
      "鏊": 7118,
      "鏖": 7119,
      "鏮": 7120,
      "鐝": 7121,
      "鐲": 7122,
      "鐻": 7123,
      "鑫": 7124,
      "针": 7125,
      "钉": 7126,
      "钊": 7127,
      "钋": 7128,
      "钌": 7129,
      "钍": 7130,
      "钎": 7131,
      "钏": 7132,
      "钐": 7133,
      "钒": 7134,
      "钓": 7135,
      "钗": 7136,
      "钘": 7137,
      "钙": 7138,
      "钚": 7139,
      "钛": 7140,
      "钜": 7141,
      "钝": 7142,
      "钞": 7143,
      "钟": 7144,
      "钠": 7145,
      "钡": 7146,
      "钢": 7147,
      "钣": 7148,
      "钤": 7149,
      "钥": 7150,
      "钦": 7151,
      "钧": 7152,
      "钨": 7153,
      "钩": 7154,
      "钪": 7155,
      "钫": 7156,
      "钮": 7157,
      "钯": 7158,
      "钰": 7159,
      "钱": 7160,
      "钲": 7161,
      "钳": 7162,
      "钴": 7163,
      "钵": 7164,
      "钹": 7165,
      "钺": 7166,
      "钻": 7167,
      "钼": 7168,
      "钾": 7169,
      "钿": 7170,
      "铀": 7171,
      "铁": 7172,
      "铂": 7173,
      "铃": 7174,
      "铄": 7175,
      "铅": 7176,
      "铆": 7177,
      "铉": 7178,
      "铋": 7179,
      "铍": 7180,
      "铎": 7181,
      "铏": 7182,
      "铐": 7183,
      "铒": 7184,
      "铕": 7185,
      "铖": 7186,
      "铗": 7187,
      "铚": 7188,
      "铛": 7189,
      "铜": 7190,
      "铝": 7191,
      "铞": 7192,
      "铠": 7193,
      "铡": 7194,
      "铢": 7195,
      "铣": 7196,
      "铤": 7197,
      "铦": 7198,
      "铧": 7199,
      "铨": 7200,
      "铩": 7201,
      "铪": 7202,
      "铫": 7203,
      "铬": 7204,
      "铭": 7205,
      "铮": 7206,
      "铯": 7207,
      "铰": 7208,
      "铱": 7209,
      "铲": 7210,
      "铳": 7211,
      "铵": 7212,
      "银": 7213,
      "铷": 7214,
      "铸": 7215,
      "铺": 7216,
      "铻": 7217,
      "铼": 7218,
      "链": 7219,
      "铿": 7220,
      "销": 7221,
      "锁": 7222,
      "锂": 7223,
      "锃": 7224,
      "锄": 7225,
      "锅": 7226,
      "锆": 7227,
      "锇": 7228,
      "锈": 7229,
      "锉": 7230,
      "锋": 7231,
      "锌": 7232,
      "锏": 7233,
      "锐": 7234,
      "锑": 7235,
      "锒": 7236,
      "锔": 7237,
      "锕": 7238,
      "锖": 7239,
      "锗": 7240,
      "错": 7241,
      "锚": 7242,
      "锛": 7243,
      "锜": 7244,
      "锝": 7245,
      "锞": 7246,
      "锟": 7247,
      "锠": 7248,
      "锡": 7249,
      "锢": 7250,
      "锣": 7251,
      "锤": 7252,
      "锥": 7253,
      "锦": 7254,
      "锨": 7255,
      "锬": 7256,
      "锭": 7257,
      "键": 7258,
      "锯": 7259,
      "锰": 7260,
      "锱": 7261,
      "锲": 7262,
      "锵": 7263,
      "锶": 7264,
      "锷": 7265,
      "锸": 7266,
      "锹": 7267,
      "锺": 7268,
      "锻": 7269,
      "锾": 7270,
      "镀": 7271,
      "镁": 7272,
      "镂": 7273,
      "镇": 7274,
      "镉": 7275,
      "镊": 7276,
      "镌": 7277,
      "镍": 7278,
      "镏": 7279,
      "镐": 7280,
      "镑": 7281,
      "镒": 7282,
      "镓": 7283,
      "镔": 7284,
      "镕": 7285,
      "镖": 7286,
      "镙": 7287,
      "镚": 7288,
      "镛": 7289,
      "镜": 7290,
      "镝": 7291,
      "镞": 7292,
      "镠": 7293,
      "镡": 7294,
      "镢": 7295,
      "镣": 7296,
      "镤": 7297,
      "镧": 7298,
      "镨": 7299,
      "镪": 7300,
      "镫": 7301,
      "镬": 7302,
      "镭": 7303,
      "镯": 7304,
      "镰": 7305,
      "镱": 7306,
      "镲": 7307,
      "镳": 7308,
      "镵": 7309,
      "镶": 7310,
      "長": 7311,
      "长": 7312,
      "門": 7313,
      "閉": 7314,
      "開": 7315,
      "閒": 7316,
      "間": 7317,
      "閟": 7318,
      "闆": 7319,
      "闇": 7320,
      "闚": 7321,
      "關": 7322,
      "门": 7323,
      "闩": 7324,
      "闪": 7325,
      "闫": 7326,
      "闬": 7327,
      "闭": 7328,
      "问": 7329,
      "闯": 7330,
      "闰": 7331,
      "闱": 7332,
      "闲": 7333,
      "闳": 7334,
      "间": 7335,
      "闵": 7336,
      "闷": 7337,
      "闸": 7338,
      "闹": 7339,
      "闺": 7340,
      "闻": 7341,
      "闼": 7342,
      "闽": 7343,
      "闾": 7344,
      "闿": 7345,
      "阀": 7346,
      "阁": 7347,
      "阂": 7348,
      "阄": 7349,
      "阅": 7350,
      "阆": 7351,
      "阇": 7352,
      "阈": 7353,
      "阉": 7354,
      "阊": 7355,
      "阋": 7356,
      "阌": 7357,
      "阍": 7358,
      "阎": 7359,
      "阏": 7360,
      "阐": 7361,
      "阑": 7362,
      "阒": 7363,
      "阔": 7364,
      "阕": 7365,
      "阖": 7366,
      "阗": 7367,
      "阙": 7368,
      "阚": 7369,
      "阜": 7370,
      "阝": 7371,
      "队": 7372,
      "阡": 7373,
      "阢": 7374,
      "阪": 7375,
      "阮": 7376,
      "阰": 7377,
      "阱": 7378,
      "防": 7379,
      "阳": 7380,
      "阴": 7381,
      "阵": 7382,
      "阶": 7383,
      "阻": 7384,
      "阼": 7385,
      "阽": 7386,
      "阿": 7387,
      "陀": 7388,
      "陂": 7389,
      "附": 7390,
      "际": 7391,
      "陆": 7392,
      "陇": 7393,
      "陈": 7394,
      "陉": 7395,
      "陋": 7396,
      "陌": 7397,
      "降": 7398,
      "陏": 7399,
      "限": 7400,
      "陔": 7401,
      "陕": 7402,
      "陛": 7403,
      "陜": 7404,
      "陝": 7405,
      "陟": 7406,
      "陡": 7407,
      "院": 7408,
      "陣": 7409,
      "除": 7410,
      "陧": 7411,
      "陨": 7412,
      "险": 7413,
      "陪": 7414,
      "陬": 7415,
      "陰": 7416,
      "陲": 7417,
      "陳": 7418,
      "陴": 7419,
      "陵": 7420,
      "陶": 7421,
      "陷": 7422,
      "陽": 7423,
      "隃": 7424,
      "隅": 7425,
      "隆": 7426,
      "隈": 7427,
      "隋": 7428,
      "隍": 7429,
      "随": 7430,
      "隐": 7431,
      "隔": 7432,
      "隗": 7433,
      "隘": 7434,
      "隙": 7435,
      "障": 7436,
      "隟": 7437,
      "隧": 7438,
      "隨": 7439,
      "隰": 7440,
      "隱": 7441,
      "隳": 7442,
      "隶": 7443,
      "隹": 7444,
      "隻": 7445,
      "隼": 7446,
      "隽": 7447,
      "难": 7448,
      "雀": 7449,
      "雁": 7450,
      "雄": 7451,
      "雅": 7452,
      "集": 7453,
      "雇": 7454,
      "雉": 7455,
      "雌": 7456,
      "雍": 7457,
      "雎": 7458,
      "雏": 7459,
      "雒": 7460,
      "雕": 7461,
      "雖": 7462,
      "雙": 7463,
      "雞": 7464,
      "雠": 7465,
      "離": 7466,
      "難": 7467,
      "雨": 7468,
      "雩": 7469,
      "雪": 7470,
      "雯": 7471,
      "雲": 7472,
      "雳": 7473,
      "零": 7474,
      "雷": 7475,
      "雹": 7476,
      "電": 7477,
      "雾": 7478,
      "需": 7479,
      "霁": 7480,
      "霄": 7481,
      "霅": 7482,
      "霆": 7483,
      "震": 7484,
      "霈": 7485,
      "霉": 7486,
      "霍": 7487,
      "霎": 7488,
      "霏": 7489,
      "霓": 7490,
      "霖": 7491,
      "霙": 7492,
      "霜": 7493,
      "霞": 7494,
      "霧": 7495,
      "霪": 7496,
      "霭": 7497,
      "霰": 7498,
      "露": 7499,
      "霸": 7500,
      "霹": 7501,
      "霾": 7502,
      "青": 7503,
      "靓": 7504,
      "靖": 7505,
      "静": 7506,
      "靛": 7507,
      "靜": 7508,
      "非": 7509,
      "靠": 7510,
      "靡": 7511,
      "面": 7512,
      "靥": 7513,
      "革": 7514,
      "靬": 7515,
      "靳": 7516,
      "靴": 7517,
      "靶": 7518,
      "靼": 7519,
      "鞅": 7520,
      "鞋": 7521,
      "鞌": 7522,
      "鞍": 7523,
      "鞑": 7524,
      "鞒": 7525,
      "鞓": 7526,
      "鞔": 7527,
      "鞕": 7528,
      "鞘": 7529,
      "鞙": 7530,
      "鞠": 7531,
      "鞣": 7532,
      "鞫": 7533,
      "鞭": 7534,
      "鞮": 7535,
      "鞯": 7536,
      "鞲": 7537,
      "鞴": 7538,
      "韦": 7539,
      "韧": 7540,
      "韩": 7541,
      "韪": 7542,
      "韫": 7543,
      "韬": 7544,
      "韭": 7545,
      "音": 7546,
      "韵": 7547,
      "韶": 7548,
      "韻": 7549,
      "響": 7550,
      "頁": 7551,
      "頂": 7552,
      "項": 7553,
      "須": 7554,
      "頓": 7555,
      "領": 7556,
      "頞": 7557,
      "頫": 7558,
      "頭": 7559,
      "頸": 7560,
      "顆": 7561,
      "題": 7562,
      "顏": 7563,
      "顗": 7564,
      "類": 7565,
      "顠": 7566,
      "顧": 7567,
      "页": 7568,
      "顶": 7569,
      "顷": 7570,
      "顸": 7571,
      "项": 7572,
      "顺": 7573,
      "须": 7574,
      "顼": 7575,
      "顽": 7576,
      "顾": 7577,
      "顿": 7578,
      "颀": 7579,
      "颁": 7580,
      "颂": 7581,
      "颃": 7582,
      "预": 7583,
      "颅": 7584,
      "领": 7585,
      "颇": 7586,
      "颈": 7587,
      "颉": 7588,
      "颊": 7589,
      "颌": 7590,
      "颍": 7591,
      "颏": 7592,
      "颐": 7593,
      "频": 7594,
      "颓": 7595,
      "颔": 7596,
      "颖": 7597,
      "颗": 7598,
      "题": 7599,
      "颙": 7600,
      "颚": 7601,
      "颛": 7602,
      "颜": 7603,
      "额": 7604,
      "颞": 7605,
      "颟": 7606,
      "颠": 7607,
      "颡": 7608,
      "颢": 7609,
      "颤": 7610,
      "颦": 7611,
      "颧": 7612,
      "風": 7613,
      "颩": 7614,
      "飄": 7615,
      "风": 7616,
      "飏": 7617,
      "飐": 7618,
      "飒": 7619,
      "飓": 7620,
      "飔": 7621,
      "飕": 7622,
      "飖": 7623,
      "飘": 7624,
      "飙": 7625,
      "飚": 7626,
      "飛": 7627,
      "飞": 7628,
      "食": 7629,
      "飢": 7630,
      "飧": 7631,
      "飨": 7632,
      "飪": 7633,
      "飯": 7634,
      "飲": 7635,
      "飽": 7636,
      "養": 7637,
      "餍": 7638,
      "餐": 7639,
      "餓": 7640,
      "餬": 7641,
      "餮": 7642,
      "餵": 7643,
      "饔": 7644,
      "饕": 7645,
      "饘": 7646,
      "饣": 7647,
      "饥": 7648,
      "饧": 7649,
      "饨": 7650,
      "饩": 7651,
      "饪": 7652,
      "饬": 7653,
      "饭": 7654,
      "饮": 7655,
      "饯": 7656,
      "饰": 7657,
      "饱": 7658,
      "饲": 7659,
      "饴": 7660,
      "饵": 7661,
      "饶": 7662,
      "饷": 7663,
      "饸": 7664,
      "饹": 7665,
      "饺": 7666,
      "饼": 7667,
      "饽": 7668,
      "饿": 7669,
      "馀": 7670,
      "馁": 7671,
      "馄": 7672,
      "馅": 7673,
      "馆": 7674,
      "馈": 7675,
      "馊": 7676,
      "馋": 7677,
      "馍": 7678,
      "馏": 7679,
      "馐": 7680,
      "馑": 7681,
      "馒": 7682,
      "馓": 7683,
      "馔": 7684,
      "馕": 7685,
      "首": 7686,
      "馗": 7687,
      "香": 7688,
      "馥": 7689,
      "馨": 7690,
      "馬": 7691,
      "駁": 7692,
      "駹": 7693,
      "騑": 7694,
      "騙": 7695,
      "騰": 7696,
      "騳": 7697,
      "騾": 7698,
      "驅": 7699,
      "驆": 7700,
      "驕": 7701,
      "驚": 7702,
      "驢": 7703,
      "马": 7704,
      "驭": 7705,
      "驮": 7706,
      "驯": 7707,
      "驰": 7708,
      "驱": 7709,
      "驳": 7710,
      "驴": 7711,
      "驶": 7712,
      "驷": 7713,
      "驸": 7714,
      "驹": 7715,
      "驻": 7716,
      "驼": 7717,
      "驽": 7718,
      "驾": 7719,
      "驿": 7720,
      "骀": 7721,
      "骁": 7722,
      "骂": 7723,
      "骃": 7724,
      "骄": 7725,
      "骅": 7726,
      "骆": 7727,
      "骇": 7728,
      "骈": 7729,
      "骊": 7730,
      "骋": 7731,
      "验": 7732,
      "骏": 7733,
      "骐": 7734,
      "骑": 7735,
      "骒": 7736,
      "骓": 7737,
      "骖": 7738,
      "骗": 7739,
      "骘": 7740,
      "骙": 7741,
      "骚": 7742,
      "骛": 7743,
      "骜": 7744,
      "骝": 7745,
      "骞": 7746,
      "骟": 7747,
      "骠": 7748,
      "骡": 7749,
      "骢": 7750,
      "骤": 7751,
      "骥": 7752,
      "骧": 7753,
      "骨": 7754,
      "骰": 7755,
      "骶": 7756,
      "骷": 7757,
      "骸": 7758,
      "骺": 7759,
      "骼": 7760,
      "髀": 7761,
      "髁": 7762,
      "髂": 7763,
      "髄": 7764,
      "髅": 7765,
      "髋": 7766,
      "髑": 7767,
      "髓": 7768,
      "體": 7769,
      "高": 7770,
      "髙": 7771,
      "髡": 7772,
      "髦": 7773,
      "髫": 7774,
      "髭": 7775,
      "髮": 7776,
      "髯": 7777,
      "髻": 7778,
      "鬂": 7779,
      "鬃": 7780,
      "鬄": 7781,
      "鬆": 7782,
      "鬈": 7783,
      "鬏": 7784,
      "鬓": 7785,
      "鬚": 7786,
      "鬟": 7787,
      "鬣": 7788,
      "鬧": 7789,
      "鬯": 7790,
      "鬲": 7791,
      "鬶": 7792,
      "鬻": 7793,
      "鬼": 7794,
      "魁": 7795,
      "魂": 7796,
      "魃": 7797,
      "魄": 7798,
      "魅": 7799,
      "魆": 7800,
      "魇": 7801,
      "魈": 7802,
      "魉": 7803,
      "魍": 7804,
      "魎": 7805,
      "魏": 7806,
      "魑": 7807,
      "魔": 7808,
      "魘": 7809,
      "魚": 7810,
      "魟": 7811,
      "鮄": 7812,
      "鮋": 7813,
      "鮟": 7814,
      "鮣": 7815,
      "鮮": 7816,
      "鯊": 7817,
      "鰲": 7818,
      "鱂": 7819,
      "鱇": 7820,
      "鱷": 7821,
      "鱼": 7822,
      "鱿": 7823,
      "鲀": 7824,
      "鲁": 7825,
      "鲂": 7826,
      "鲅": 7827,
      "鲇": 7828,
      "鲈": 7829,
      "鲋": 7830,
      "鲍": 7831,
      "鲎": 7832,
      "鲑": 7833,
      "鲔": 7834,
      "鲙": 7835,
      "鲚": 7836,
      "鲛": 7837,
      "鲜": 7838,
      "鲞": 7839,
      "鲟": 7840,
      "鲠": 7841,
      "鲡": 7842,
      "鲢": 7843,
      "鲣": 7844,
      "鲤": 7845,
      "鲦": 7846,
      "鲧": 7847,
      "鲨": 7848,
      "鲩": 7849,
      "鲫": 7850,
      "鲭": 7851,
      "鲮": 7852,
      "鲯": 7853,
      "鲰": 7854,
      "鲱": 7855,
      "鲲": 7856,
      "鲳": 7857,
      "鲵": 7858,
      "鲶": 7859,
      "鲷": 7860,
      "鲸": 7861,
      "鲻": 7862,
      "鲼": 7863,
      "鲽": 7864,
      "鳃": 7865,
      "鳄": 7866,
      "鳅": 7867,
      "鳆": 7868,
      "鳊": 7869,
      "鳌": 7870,
      "鳍": 7871,
      "鳎": 7872,
      "鳏": 7873,
      "鳐": 7874,
      "鳓": 7875,
      "鳔": 7876,
      "鳕": 7877,
      "鳖": 7878,
      "鳗": 7879,
      "鳘": 7880,
      "鳙": 7881,
      "鳜": 7882,
      "鳝": 7883,
      "鳞": 7884,
      "鳟": 7885,
      "鳢": 7886,
      "鳥": 7887,
      "鳾": 7888,
      "鴨": 7889,
      "鴳": 7890,
      "鶖": 7891,
      "鷟": 7892,
      "鷹": 7893,
      "鸑": 7894,
      "鸟": 7895,
      "鸠": 7896,
      "鸡": 7897,
      "鸢": 7898,
      "鸣": 7899,
      "鸥": 7900,
      "鸦": 7901,
      "鸧": 7902,
      "鸨": 7903,
      "鸩": 7904,
      "鸪": 7905,
      "鸫": 7906,
      "鸬": 7907,
      "鸭": 7908,
      "鸮": 7909,
      "鸯": 7910,
      "鸱": 7911,
      "鸲": 7912,
      "鸳": 7913,
      "鸵": 7914,
      "鸶": 7915,
      "鸷": 7916,
      "鸸": 7917,
      "鸹": 7918,
      "鸽": 7919,
      "鸾": 7920,
      "鸿": 7921,
      "鹁": 7922,
      "鹂": 7923,
      "鹃": 7924,
      "鹄": 7925,
      "鹅": 7926,
      "鹇": 7927,
      "鹈": 7928,
      "鹉": 7929,
      "鹊": 7930,
      "鹋": 7931,
      "鹌": 7932,
      "鹍": 7933,
      "鹏": 7934,
      "鹐": 7935,
      "鹑": 7936,
      "鹒": 7937,
      "鹓": 7938,
      "鹕": 7939,
      "鹖": 7940,
      "鹗": 7941,
      "鹘": 7942,
      "鹚": 7943,
      "鹜": 7944,
      "鹞": 7945,
      "鹣": 7946,
      "鹤": 7947,
      "鹦": 7948,
      "鹧": 7949,
      "鹩": 7950,
      "鹪": 7951,
      "鹫": 7952,
      "鹬": 7953,
      "鹭": 7954,
      "鹮": 7955,
      "鹰": 7956,
      "鹳": 7957,
      "鹿": 7958,
      "麂": 7959,
      "麇": 7960,
      "麈": 7961,
      "麋": 7962,
      "麒": 7963,
      "麓": 7964,
      "麗": 7965,
      "麝": 7966,
      "麞": 7967,
      "麟": 7968,
      "麦": 7969,
      "麴": 7970,
      "麵": 7971,
      "麸": 7972,
      "麻": 7973,
      "麼": 7974,
      "麽": 7975,
      "麾": 7976,
      "黃": 7977,
      "黄": 7978,
      "黉": 7979,
      "黍": 7980,
      "黎": 7981,
      "黏": 7982,
      "黑": 7983,
      "黒": 7984,
      "黔": 7985,
      "默": 7986,
      "黙": 7987,
      "黛": 7988,
      "黜": 7989,
      "黝": 7990,
      "點": 7991,
      "黟": 7992,
      "黠": 7993,
      "黢": 7994,
      "黥": 7995,
      "黧": 7996,
      "黩": 7997,
      "黮": 7998,
      "黯": 7999,
      "黻": 8000,
      "黼": 8001,
      "黾": 8002,
      "鼋": 8003,
      "鼍": 8004,
      "鼎": 8005,
      "鼐": 8006,
      "鼓": 8007,
      "鼗": 8008,
      "鼙": 8009,
      "鼠": 8010,
      "鼢": 8011,
      "鼬": 8012,
      "鼯": 8013,
      "鼴": 8014,
      "鼷": 8015,
      "鼹": 8016,
      "鼻": 8017,
      "鼾": 8018,
      "齁": 8019,
      "齐": 8020,
      "齑": 8021,
      "齒": 8022,
      "齜": 8023,
      "齡": 8024,
      "齢": 8025,
      "齮": 8026,
      "齾": 8027,
      "齿": 8028,
      "龀": 8029,
      "龁": 8030,
      "龂": 8031,
      "龃": 8032,
      "龄": 8033,
      "龅": 8034,
      "龆": 8035,
      "龇": 8036,
      "龈": 8037,
      "龉": 8038,
      "龊": 8039,
      "龋": 8040,
      "龌": 8041,
      "龍": 8042,
      "龐": 8043,
      "龙": 8044,
      "龚": 8045,
      "龛": 8046,
      "龟": 8047,
      "龠": 8048,
      "龢": 8049,
      "鿏": 8050,
      "": 8051,
      "": 8052,
      "": 8053,
      "": 8054,
      "": 8055,
      "": 8056,
      "": 8057,
      "": 8058,
      "": 8059,
      "": 8060,
      "": 8061,
      "": 8062,
      "": 8063,
      "": 8064,
      "": 8065,
      "": 8066,
      "": 8067,
      "": 8068,
      "": 8069,
      "": 8070,
      "": 8071,
      "": 8072,
      "": 8073,
      "": 8074,
      "": 8075,
      "": 8076,
      "": 8077,
      "": 8078,
      "": 8079,
      "": 8080,
      "": 8081,
      "": 8082,
      "": 8083,
      "": 8084,
      "": 8085,
      "": 8086,
      "": 8087,
      "": 8088,
      "": 8089,
      "": 8090,
      "": 8091,
      "": 8092,
      "": 8093,
      "": 8094,
      "": 8095,
      "": 8096,
      "": 8097,
      "": 8098,
      "": 8099,
      "": 8100,
      "": 8101,
      "": 8102,
      "": 8103,
      "": 8104,
      "": 8105,
      "": 8106,
      "": 8107,
      "": 8108,
      "": 8109,
      "": 8110,
      "": 8111,
      "": 8112,
      "": 8113,
      "": 8114,
      "": 8115,
      "": 8116,
      "": 8117,
      "": 8118,
      "": 8119,
      "": 8120,
      "": 8121,
      "": 8122,
      "": 8123,
      "": 8124,
      "": 8125,
      "": 8126,
      "": 8127,
      "": 8128,
      "": 8129,
      "": 8130,
      "": 8131,
      "": 8132,
      "️": 8133,
      "︰": 8134,
      "︿": 8135,
      "﹐": 8136,
      "﹑": 8137,
      "﹒": 8138,
      "﹔": 8139,
      "﹖": 8140,
      "﹗": 8141,
      "﹝": 8142,
      "﹞": 8143,
      "﹣": 8144,
      "﹤": 8145,
      "﹦": 8146,
      "﹪": 8147,
      "�": 8148,
      "💡": 8149,
      "𤞤": 8150,
      "𦰏": 8151,
      "𪣻": 8152,
      "𪩘": 8153,
      "𪭢": 8154,
      "𫐓": 8155,
      "𫔎": 8156,
      "𫗦": 8157,
      "𫘝": 8158,
      "𫘨": 8159,
      "𫛩": 8160,
      "𬀩": 8161,
      "𬀪": 8162,
      "𬩽": 8163,
      "𬯎": 8164,
      "𬴂": 8165,
      "什么": 8166,
      "我们": 8167,
      "一个": 8168,
      "这个": 8169,
      "CH": 8170,
      "就是": 8171,
      "怎么": 8172,
      "没有": 8173,
      "不是": 8174,
      "ER": 8175,
      "IL": 8176,
      "CHIL": 8177,
      "CHILD": 8178,
      "AR": 8179,
      "ET": 8180,
      "知道": 8181,
      "GET": 8182,
      "TAR": 8183,
      "TARGET": 8184,
      "他们": 8185,
      "现在": 8186,
      "你们": 8187,
      "TH": 8188,
      "THER": 8189,
      "时候": 8190,
      "自己": 8191,
      "OTHER": 8192,
      "MOTHER": 8193,
      "可以": 8194,
      "那个": 8195,
      "这么": 8196,
      "这样": 8197,
      "我的": 8198,
      "觉得": 8199,
      "然后": 8200,
      "因为": 8201,
      "还是": 8202,
      "你的": 8203,
      "所以": 8204,
      "已经": 8205,
      "但是": 8206,
      "的时候": 8207,
      "来了": 8208,
      "不能": 8209,
      "还有": 8210,
      "真的": 8211,
      "这是": 8212,
      "你说": 8213,
      "一下": 8214,
      "到了": 8215,
      "的人": 8216,
      "如果": 8217,
      "今天": 8218,
      "妈妈": 8219,
      "我就": 8220,
      "都是": 8221,
      "可能": 8222,
      "那么": 8223,
      "喜欢": 8224,
      "TI": 8225,
      "不会": 8226,
      "一定": 8227,
      "孩子": 8228,
      "VE": 8229,
      "咱们": 8230,
      "AT": 8231,
      "OR": 8232,
      "IN": 8233,
      "GAT": 8234,
      "STI": 8235,
      "VESTI": 8236,
      "INVESTI": 8237,
      "GATOR": 8238,
      "INVESTIGATOR": 8239,
      "可是": 8240,
      "也是": 8241,
      "事儿": 8242,
      "出来": 8243,
      "大家": 8244,
      "了一": 8245,
      "起来": 8246,
      "xx": 8247,
      "应该": 8248,
      "他的": 8249,
      "我是": 8250,
      "时间": 8251,
      "事情": 8252,
      "东西": 8253,
      "的是": 8254,
      "不知道": 8255,
      "给我": 8256,
      "这些": 8257,
      "的话": 8258,
      "中国": 8259,
      "好了": 8260,
      "好的": 8261,
      "其实": 8262,
      "为什么": 8263,
      "我也": 8264,
      "告诉": 8265,
      "谢谢": 8266,
      "一起": 8267,
      "不要": 8268,
      "朋友": 8269,
      "以后": 8270,
      "你是": 8271,
      "我觉得": 8272,
      "一样": 8273,
      "有一": 8274,
      "在这": 8275,
      "你看": 8276,
      "问题": 8277,
      "不过": 8278,
      "我说": 8279,
      "in": 8280,
      "非常": 8281,
      "开始": 8282,
      "EA": 8283,
      "TEA": 8284,
      "TEACH": 8285,
      "TEACHER": 8286,
      "答案": 8287,
      "给你": 8288,
      "去了": 8289,
      "en": 8290,
      "两个": 8291,
      "我不": 8292,
      "人的": 8293,
      "爸爸": 8294,
      "为了": 8295,
      "你好": 8296,
      "不好": 8297,
      "一点": 8298,
      "这种": 8299,
      "回来": 8300,
      "特别": 8301,
      "一直": 8302,
      "意思": 8303,
      "要是": 8304,
      "很多": 8305,
      "哈哈": 8306,
      "自己的": 8307,
      "大的": 8308,
      "看看": 8309,
      "老师": 8310,
      "走了": 8311,
      "是不是": 8312,
      "好好": 8313,
      "你就": 8314,
      "的一": 8315,
      "er": 8316,
      "发现": 8317,
      "下来": 8318,
      "而且": 8319,
      "需要": 8320,
      "ra": 8321,
      "里面": 8322,
      "也不": 8323,
      "地方": 8324,
      "这一": 8325,
      "工作": 8326,
      "我想": 8327,
      "看到": 8328,
      "rac": 8329,
      "frac": 8330,
      "有什么": 8331,
      "过来": 8332,
      "关系": 8333,
      "让我": 8334,
      "我们的": 8335,
      "生活": 8336,
      "希望": 8337,
      "了吗": 8338,
      "之后": 8339,
      "你怎么": 8340,
      "上的": 8341,
      "第一": 8342,
      "肯定": 8343,
      "题干": 8344,
      "先生": 8345,
      "了我": 8346,
      "这里": 8347,
      "le": 8348,
      "哪儿": 8349,
      "lin": 8350,
      "感觉": 8351,
      "会儿": 8352,
      "我跟": 8353,
      "line": 8354,
      "erline": 8355,
      "我要": 8356,
      "正确": 8357,
      "xxx": 8358,
      "真是": 8359,
      "的小": 8360,
      "an": 8361,
      "人家": 8362,
      "怎么样": 8363,
      "所有": 8364,
      "对不": 8365,
      "最后": 8366,
      "选项": 8367,
      "之前": 8368,
      "只是": 8369,
      "当时": 8370,
      "世界": 8371,
      "来的": 8372,
      "你不": 8373,
      "都不": 8374,
      "办法": 8375,
      "出去": 8376,
      "重要": 8377,
      "ri": 8378,
      "你要": 8379,
      "我还": 8380,
      "准备": 8381,
      "不了": 8382,
      "好像": 8383,
      "比较": 8384,
      "是我": 8385,
      "这儿": 8386,
      "跟我": 8387,
      "回去": 8388,
      "刚才": 8389,
      "心里": 8390,
      "rm": 8391,
      "明白": 8392,
      "一个人": 8393,
      "情况": 8394,
      "了吧": 8395,
      "那你": 8396,
      "有点": 8397,
      "解析": 8398,
      "到底": 8399,
      "我知道": 8400,
      "只有": 8401,
      "我看": 8402,
      "是啊": 8403,
      "这次": 8404,
      "那些": 8405,
      "了你": 8406,
      "能够": 8407,
      "只要": 8408,
      "一些": 8409,
      "公司": 8410,
      "儿子": 8411,
      "晚上": 8412,
      "是一": 8413,
      "gh": 8414,
      "发生": 8415,
      "电话": 8416,
      "ght": 8417,
      "当然": 8418,
      "不行": 8419,
      "这样的": 8420,
      "虽然": 8421,
      "right": 8422,
      "AD": 8423,
      "清楚": 8424,
      "你这": 8425,
      "比赛": 8426,
      "你也": 8427,
      "我都": 8428,
      "故事": 8429,
      "最近": 8430,
      "说了": 8431,
      "相信": 8432,
      "马上": 8433,
      "i4": 8434,
      "放心": 8435,
      "第二": 8436,
      "你还": 8437,
      "UL": 8438,
      "ULT": 8439,
      "ADULT": 8440,
      "国家": 8441,
      "中的": 8442,
      "过去": 8443,
      "几个": 8444,
      "想到": 8445,
      "必须": 8446,
      "回家": 8447,
      "让你": 8448,
      "电影": 8449,
      "兄弟": 8450,
      "看见": 8451,
      "姑娘": 8452,
      "了一个": 8453,
      "没事": 8454,
      "她的": 8455,
      "多少": 8456,
      "赶紧": 8457,
      "的大": 8458,
      "有一个": 8459,
      "我这": 8460,
      "后来": 8461,
      "家里": 8462,
      "以前": 8463,
      "一次": 8464,
      "以为": 8465,
      "小姐": 8466,
      "高兴": 8467,
      "通过": 8468,
      "不到": 8469,
      "你知道": 8470,
      "子的": 8471,
      "二十": 8472,
      "我现在": 8473,
      "大哥": 8474,
      "那种": 8475,
      "干什么": 8476,
      "在这儿": 8477,
      "别人": 8478,
      "不用": 8479,
      "跟你": 8480,
      "突然": 8481,
      "出了": 8482,
      "确实": 8483,
      "ao": 8484,
      "有没有": 8485,
      "有人": 8486,
      "进行": 8487,
      "来来": 8488,
      "说的": 8489,
      "原来": 8490,
      "我在": 8491,
      "我去": 8492,
      "ft": 8493,
      "结果": 8494,
      "它们": 8495,
      "错误": 8496,
      "的事情": 8497,
      "日本": 8498,
      "大人": 8499,
      "me": 8500,
      "是什么": 8501,
      "你别": 8502,
      "运动": 8503,
      "我我": 8504,
      "一定要": 8505,
      "他是": 8506,
      "里的": 8507,
      "个人": 8508,
      "成了": 8509,
      "离开": 8510,
      "找到": 8511,
      "不错": 8512,
      "机会": 8513,
      "一天": 8514,
      "就会": 8515,
      "发展": 8516,
      "left": 8517,
      "听说": 8518,
      "认识": 8519,
      "因此": 8520,
      "愿意": 8521,
      "要不": 8522,
      "告诉你": 8523,
      "了啊": 8524,
      "哎呀": 8525,
      "不同": 8526,
      "眼睛": 8527,
      "干吗": 8528,
      "20": 8529,
      "明天": 8530,
      "下去": 8531,
      "上了": 8532,
      "衣服": 8533,
      "再见": 8534,
      "一会儿": 8535,
      "你想": 8536,
      "那我": 8537,
      "怎么办": 8538,
      "女儿": 8539,
      "是一个": 8540,
      "同志": 8541,
      "ma": 8542,
      "厉害": 8543,
      "说话": 8544,
      "就不": 8545,
      "的事": 8546,
      "看着": 8547,
      "容易": 8548,
      "记得": 8549,
      "ent": 8550,
      "在一起": 8551,
      "10": 8552,
      "决定": 8553,
      "于是": 8554,
      "怎么了": 8555,
      "cent": 8556,
      "身体": 8557,
      "吃饭": 8558,
      "拜拜": 8559,
      "那是": 8560,
      "动物": 8561,
      "嗯嗯": 8562,
      "centerline": 8563,
      "每天": 8564,
      "死了": 8565,
      "一只": 8566,
      "不得": 8567,
      "之间": 8568,
      "哪里": 8569,
      "奶奶": 8570,
      "任何": 8571,
      "的一个": 8572,
      "这么多": 8573,
      "社会": 8574,
      "对对": 8575,
      "我来": 8576,
      "让他": 8577,
      "对不起": 8578,
      "是吧": 8579,
      "你在": 8580,
      "根本": 8581,
      "影响": 8582,
      "漂亮": 8583,
      "他说": 8584,
      "这件": 8585,
      "都没有": 8586,
      "选择": 8587,
      "对啊": 8588,
      "公主": 8589,
      "房子": 8590,
      "只能": 8591,
      "继续": 8592,
      "出现": 8593,
      "的地方": 8594,
      "有个": 8595,
      "给他": 8596,
      "父亲": 8597,
      "i3": 8598,
      "行了": 8599,
      "哥哥": 8600,
      "la": 8601,
      "do": 8602,
      "是个": 8603,
      "FA": 8604,
      "或者": 8605,
      "年的": 8606,
      "过了": 8607,
      "老板": 8608,
      "FATHER": 8609,
      "多了": 8610,
      "不管": 8611,
      "我会": 8612,
      "三个": 8613,
      "同学": 8614,
      "它的": 8615,
      "直接": 8616,
      "一块": 8617,
      "家的": 8618,
      "姐姐": 8619,
      "认为": 8620,
      "声音": 8621,
      "un": 8622,
      "终于": 8623,
      "担心": 8624,
      "他们的": 8625,
      "小心": 8626,
      "美国": 8627,
      "那儿": 8628,
      "也没": 8629,
      "那就": 8630,
      "样子": 8631,
      "正在": 8632,
      "女人": 8633,
      "安全": 8634,
      "上面": 8635,
      "狐狸": 8636,
      "回来了": 8637,
      "既然": 8638,
      "太阳": 8639,
      "完全": 8640,
      "色的": 8641,
      "he": 8642,
      "是你": 8643,
      "手机": 8644,
      "und": 8645,
      "才能": 8646,
      "就在": 8647,
      "的东西": 8648,
      "学生": 8649,
      "身上": 8650,
      "日子": 8651,
      "爷爷": 8652,
      "把我": 8653,
      "有些": 8654,
      "作为": 8655,
      "成为": 8656,
      "好不好": 8657,
      "underline": 8658,
      "了解": 8659,
      "你去": 8660,
      "根据": 8661,
      "进去": 8662,
      "不想": 8663,
      "反正": 8664,
      "答应": 8665,
      "带着": 8666,
      "开心": 8667,
      "医院": 8668,
      "青蛙": 8669,
      "学校": 8670,
      "刚刚": 8671,
      "i2": 8672,
      "医生": 8673,
      "年轻": 8674,
      "人们": 8675,
      "还没": 8676,
      "一种": 8677,
      "老鼠": 8678,
      "学习": 8679,
      "过程": 8680,
      "就要": 8681,
      "那边": 8682,
      "是在": 8683,
      "好啊": 8684,
      "保护": 8685,
      "就算": 8686,
      "阿姨": 8687,
      "其他": 8688,
      "句话": 8689,
      "看来": 8690,
      "来到": 8691,
      "你了": 8692,
      "方面": 8693,
      "变成": 8694,
      "还要": 8695,
      "真的是": 8696,
      "也没有": 8697,
      "还不": 8698,
      "完了": 8699,
      "ti": 8700,
      "我有": 8701,
      "好吧": 8702,
      "没想到": 8703,
      "sh": 8704,
      "新闻": 8705,
      "的这个": 8706,
      "消息": 8707,
      "走吧": 8708,
      "对于": 8709,
      "名字": 8710,
      "你能": 8711,
      "dot": 8712,
      "什么时候": 8713,
      "几天": 8714,
      "做的": 8715,
      "难道": 8716,
      "一定会": 8717,
      "你现在": 8718,
      "将军": 8719,
      "下的": 8720,
      "我就是": 8721,
      "得到": 8722,
      "主要": 8723,
      "是谁": 8724,
      "地说": 8725,
      "如何": 8726,
      "注意": 8727,
      "昨天": 8728,
      "都有": 8729,
      "休息": 8730,
      "整个": 8731,
      "一般": 8732,
      "游戏": 8733,
      "文化": 8734,
      "都在": 8735,
      "她们": 8736,
      "我怎么": 8737,
      "子里": 8738,
      "越来": 8739,
      "住了": 8740,
      "他就": 8741,
      "成功": 8742,
      "好多": 8743,
      "结婚": 8744,
      "对了": 8745,
      "帮我": 8746,
      "我没": 8747,
      "自然": 8748,
      "越来越": 8749,
      "作用": 8750,
      "任务": 8751,
      "都没": 8752,
      "来说": 8753,
      "的那": 8754,
      "都会": 8755,
      "慢慢": 8756,
      "国王": 8757,
      "环境": 8758,
      "你你": 8759,
      "一边": 8760,
      "参加": 8761,
      "本来": 8762,
      "身边": 8763,
      "三十": 8764,
      "所有的": 8765,
      "皇上": 8766,
      "外面": 8767,
      "能力": 8768,
      "就像": 8769,
      "样的": 8770,
      "要求": 8771,
      "苹果": 8772,
      "设计": 8773,
      "一看": 8774,
      "在这里": 8775,
      "速度": 8776,
      "什么呀": 8777,
      "下列": 8778,
      "多的": 8779,
      "方式": 8780,
      "th": 8781,
      "麻烦": 8782,
      "跟着": 8783,
      "这个人": 8784,
      "部分": 8785,
      "如此": 8786,
      "上去": 8787,
      "看了": 8788,
      "快点": 8789,
      "的那个": 8790,
      "睡觉": 8791,
      "研究": 8792,
      "很好": 8793,
      "男人": 8794,
      "实在": 8795,
      "属于": 8796,
      "长的": 8797,
      "平时": 8798,
      "理解": 8799,
      "同时": 8800,
      "照顾": 8801,
      "跟我说": 8802,
      "把他": 8803,
      "帮助": 8804,
      "新的": 8805,
      "ang": 8806,
      "技术": 8807,
      "生气": 8808,
      "经过": 8809,
      "从来": 8810,
      "把你": 8811,
      "条件": 8812,
      "后面": 8813,
      "电视": 8814,
      "妹妹": 8815,
      "time": 8816,
      "这就是": 8817,
      "times": 8818,
      "有的": 8819,
      "u4": 8820,
      "不见": 8821,
      "努力": 8822,
      "比如": 8823,
      "回答": 8824,
      "千万": 8825,
      "AN": 8826,
      "物体": 8827,
      "故选": 8828,
      "把它": 8829,
      "回到": 8830,
      "一条": 8831,
      "听到": 8832,
      "思考": 8833,
      "回事": 8834,
      "那里": 8835,
      "跟你说": 8836,
      "解决": 8837,
      "简单": 8838,
      "ar": 8839,
      "在我": 8840,
      "美丽": 8841,
      "变化": 8842,
      "经常": 8843,
      "大了": 8844,
      "经济": 8845,
      "我已经": 8846,
      "我们就": 8847,
      "再说": 8848,
      "幸福": 8849,
      "你有": 8850,
      "方向": 8851,
      "快乐": 8852,
      "想要": 8853,
      "的事儿": 8854,
      "你啊": 8855,
      "人民": 8856,
      "下了": 8857,
      "房间": 8858,
      "除了": 8859,
      "吃的": 8860,
      "考虑": 8861,
      "我一": 8862,
      "说明": 8863,
      "永远": 8864,
      "着急": 8865,
      "母亲": 8866,
      "就是说": 8867,
      "有了": 8868,
      "完成": 8869,
      "反应": 8870,
      "早就": 8871,
      "end": 8872,
      "是的": 8873,
      "毕竟": 8874,
      "没错": 8875,
      "地上": 8876,
      "女孩": 8877,
      "当中": 8878,
      "去找": 8879,
      "植物": 8880,
      "进入": 8881,
      "小的": 8882,
      "北京": 8883,
      "历史": 8884,
      "别的": 8885,
      "啊你": 8886,
      "见过": 8887,
      "行动": 8888,
      "一切": 8889,
      "队长": 8890,
      "生命": 8891,
      "我了": 8892,
      "全部": 8893,
      "我先": 8894,
      "关注": 8895,
      "关于": 8896,
      "信息": 8897,
      "也有": 8898,
      "小时": 8899,
      "精神": 8900,
      "还在": 8901,
      "家人": 8902,
      "我和": 8903,
      "的吗": 8904,
      "说法": 8905,
      "告诉我": 8906,
      "下面": 8907,
      "十分": 8908,
      "出来了": 8909,
      "上海": 8910,
      "不可": 8911,
      "不知": 8912,
      "危险": 8913,
      "打开": 8914,
      "真正": 8915,
      "对呀": 8916,
      "哈哈哈": 8917,
      "路上": 8918,
      "位置": 8919,
      "基本": 8920,
      "ge": 8921,
      "表现": 8922,
      "材料": 8923,
      "原因": 8924,
      "您的": 8925,
      "起了": 8926,
      "面前": 8927,
      "那么多": 8928,
      "i1": 8929,
      "得了": 8930,
      "我跟你说": 8931,
      "辈子": 8932,
      "是因为": 8933,
      "不太": 8934,
      "很快": 8935,
      "进来": 8936,
      "甚至": 8937,
      "啊我": 8938,
      "森林": 8939,
      "害怕": 8940,
      "人类": 8941,
      "弟弟": 8942,
      "能不能": 8943,
      "不可能": 8944,
      "兔子": 8945,
      "无法": 8946,
      "警察": 8947,
      "节目": 8948,
      "对不对": 8949,
      "改变": 8950,
      "放在": 8951,
      "有一天": 8952,
      "我不是": 8953,
      "共产": 8954,
      "那天": 8955,
      "math": 8956,
      "代表": 8957,
      "第一次": 8958,
      "是有": 8959,
      "这位": 8960,
      "大学": 8961,
      "包括": 8962,
      "你不是": 8963,
      "夫人": 8964,
      "就可以": 8965,
      "方法": 8966,
      "跟他": 8967,
      "好看": 8968,
      "这边": 8969,
      "飞机": 8970,
      "你们的": 8971,
      "老婆": 8972,
      "两天": 8973,
      "等着": 8974,
      "还能": 8975,
      "接下来": 8976,
      "去吧": 8977,
      "安排": 8978,
      "在这个": 8979,
      "父母": 8980,
      "做了": 8981,
      "sq": 8982,
      "是吗": 8983,
      "组织": 8984,
      "计划": 8985,
      "不敢": 8986,
      "对我": 8987,
      "欢迎": 8988,
      "说不": 8989,
      "活动": 8990,
      "让我们": 8991,
      "利用": 8992,
      "产生": 8993,
      "他在": 8994,
      "现场": 8995,
      "你先": 8996,
      "绝对": 8997,
      "我告诉你": 8998,
      "曾经": 8999,
      "知道了": 9000,
      "接受": 9001,
      "奇怪": 9002,
      "联系": 9003,
      "许多": 9004,
      "说什么": 9005,
      "这时": 9006,
      "没什么": 9007,
      "这么说": 9008,
      "总是": 9009,
      "会有": 9010,
      "进了": 9011,
      "很有": 9012,
      "这事儿": 9013,
      "使用": 9014,
      "我没有": 9015,
      "主人": 9016,
      "的就是": 9017,
      "的啊": 9018,
      "处理": 9019,
      "我可以": 9020,
      "好吗": 9021,
      "报告": 9022,
      "的呀": 9023,
      "帮你": 9024,
      "都要": 9025,
      "说是": 9026,
      "来看": 9027,
      "共产党": 9028,
      "太太": 9029,
      "ao3": 9030,
      "应该是": 9031,
      "国的": 9032,
      "忘了": 9033,
      "吃了": 9034,
      "rt": 9035,
      "存在": 9036,
      "走走": 9037,
      "不在": 9038,
      "师父": 9039,
      "天天": 9040,
      "实验": 9041,
      "负责": 9042,
      "科学": 9043,
      "sqrt": 9044,
      "我真的": 9045,
      "大象": 9046,
      "的时间": 9047,
      "百姓": 9048,
      "正好": 9049,
      "一步": 9050,
      "对吧": 9051,
      "叔叔": 9052,
      "开了": 9053,
      "等等": 9054,
      "不起": 9055,
      "问你": 9056,
      "不仅": 9057,
      "各种": 9058,
      "足球": 9059,
      "解释": 9060,
      "这不是": 9061,
      "了他": 9062,
      "不一样": 9063,
      "你可": 9064,
      "就能": 9065,
      "政府": 9066,
      "fla": 9067,
      "辛苦": 9068,
      "flag": 9069,
      "centerlineend": 9070,
      "centerlineendflag": 9071,
      "说得": 9072,
      "爱的": 9073,
      "我能": 9074,
      "一百": 9075,
      "你这个": 9076,
      "由于": 9077,
      "鬼子": 9078,
      "点儿": 9079,
      "另外": 9080,
      "介绍": 9081,
      "当年": 9082,
      "部队": 9083,
      "人都": 9084,
      "出的": 9085,
      "ta": 9086,
      "其中": 9087,
      "不好意思": 9088,
      "前面": 9089,
      "小熊": 9090,
      "分钟": 9091,
      "各位": 9092,
      "身份": 9093,
      "感谢": 9094,
      "细胞": 9095,
      "我自己": 9096,
      "支持": 9097,
      "快快": 9098,
      "不住": 9099,
      "大家都": 9100,
      "你是不是": 9101,
      "干嘛": 9102,
      "生物": 9103,
      "观察": 9104,
      "我们家": 9105,
      "司令": 9106,
      "打电话": 9107,
      "你跟": 9108,
      "接着": 9109,
      "段时间": 9110,
      "老爷": 9111,
      "出来的": 9112,
      "感情": 9113,
      "你可以": 9114,
      "你要是": 9115,
      "里边": 9116,
      "怎么回事": 9117,
      "调查": 9118,
      "什么事": 9119,
      "得很": 9120,
      "空气": 9121,
      "还没有": 9122,
      "mathrm": 9123,
      "照片": 9124,
      "我也是": 9125,
      "为什么要": 9126,
      "拿着": 9127,
      "坚持": 9128,
      "打算": 9129,
      "会不会": 9130,
      "咱俩": 9131,
      "加油": 9132,
      "那样": 9133,
      "遇到": 9134,
      "道理": 9135,
      "城市": 9136,
      "合作": 9137,
      "一位": 9138,
      "你自己": 9139,
      "保证": 9140,
      "怀疑": 9141,
      "让她": 9142,
      "我们要": 9143,
      "主任": 9144,
      "哪个": 9145,
      "错了": 9146,
      "让人": 9147,
      "也许": 9148,
      "聪明": 9149,
      "见到": 9150,
      "听见": 9151,
      "同意": 9152,
      "地球": 9153,
      "实际": 9154,
      "你们俩": 9155,
      "不多": 9156,
      "主义": 9157,
      "颜色": 9158,
      "ou": 9159,
      "小子": 9160,
      "一年": 9161,
      "竟然": 9162,
      "这不": 9163,
      "两个人": 9164,
      "状态": 9165,
      "领导": 9166,
      "心的": 9167,
      "日本人": 9168,
      "放心吧": 9169,
      "不上": 9170,
      "教育": 9171,
      "我还是": 9172,
      "判断": 9173,
      "挺好的": 9174,
      "一九": 9175,
      "一件": 9176,
      "不着": 9177,
      "商量": 9178,
      "00": 9179,
      "受到": 9180,
      "公子": 9181,
      "关键": 9182,
      "质量": 9183,
      "我今天": 9184,
      "成的": 9185,
      "二零": 9186,
      "每次": 9187,
      "生意": 9188,
      "篮球": 9189,
      "居然": 9190,
      "什么意思": 9191,
      "正常": 9192,
      "ro": 9193,
      "我得": 9194,
      "老虎": 9195,
      "系统": 9196,
      "把这": 9197,
      "时代": 9198,
      "把这个": 9199,
      "说你": 9200,
      "十二": 9201,
      "重要的": 9202,
      "说我": 9203,
      "结束": 9204,
      "ni3": 9205,
      "才是": 9206,
      "少爷": 9207,
      "也不是": 9208,
      "证明": 9209,
      "对你": 9210,
      "我给你": 9211,
      "怎么会": 9212,
      "从小": 9213,
      "表示": 9214,
      "实话": 9215,
      "我再": 9216,
      "给我们": 9217,
      "一声": 9218,
      "第三": 9219,
      "严重": 9220,
      "演员": 9221,
      "肚子": 9222,
      "宝宝": 9223,
      "这件事情": 9224,
      "确定": 9225,
      "旁边": 9226,
      "知识": 9227,
      "站在": 9228,
      "没关系": 9229,
      "到时候": 9230,
      "小白": 9231,
      "食物": 9232,
      "给她": 9233,
      "也会": 9234,
      "天下": 9235,
      "不容易": 9236,
      "长得": 9237,
      "你会": 9238,
      "合适": 9239,
      "什么呢": 9240,
      "无论": 9241,
      "音乐": 9242,
      "想想": 9243,
      "的心": 9244,
      "让他们": 9245,
      "王子": 9246,
      "命令": 9247,
      "谢谢你": 9248,
      "我很": 9249,
      "媳妇": 9250,
      "年前": 9251,
      "首先": 9252,
      "妖怪": 9253,
      "变得": 9254,
      "物质": 9255,
      "你觉得": 9256,
      "有关": 9257,
      "生的": 9258,
      "太好了": 9259,
      "分析": 9260,
      "坐在": 9261,
      "你来": 9262,
      "要不然": 9263,
      "五十": 9264,
      "按照": 9265,
      "控制": 9266,
      "的故事": 9267,
      "市场": 9268,
      "可能是": 9269,
      "家庭": 9270,
      "证据": 9271,
      "想法": 9272,
      "责任": 9273,
      "用的": 9274,
      "似的": 9275,
      "中央": 9276,
      "我们是": 9277,
      "我可": 9278,
      "的好": 9279,
      "面对": 9280,
      "也很": 9281,
      "随便": 9282,
      "算是": 9283,
      "门口": 9284,
      "石头": 9285,
      "舒服": 9286,
      "我妈": 9287,
      "了呢": 9288,
      "更加": 9289,
      "你知道吗": 9290,
      "你都": 9291,
      "秘密": 9292,
      "的问题": 9293,
      "力量": 9294,
      "以及": 9295,
      "一直在": 9296,
      "最大的": 9297,
      "明白了": 9298,
      "猴子": 9299,
      "民族": 9300,
      "重新": 9301,
      "听了": 9302,
      "万一": 9303,
      "符合": 9304,
      "要去": 9305,
      "我不知道": 9306,
      "你好啊": 9307,
      "不断": 9308,
      "客气": 9309,
      "皇帝": 9310,
      "革命": 9311,
      "自由": 9312,
      "具有": 9313,
      "AND": 9314,
      "就没有": 9315,
      "请你": 9316,
      "XX": 9317,
      "GR": 9318,
      "第一个": 9319,
      "GRAND": 9320,
      "人员": 9321,
      "不不": 9322,
      "倒是": 9323,
      "的情况": 9324,
      "大夫": 9325,
      "zhe": 9326,
      "在哪儿": 9327,
      "妻子": 9328,
      "你看看": 9329,
      "训练": 9330,
      "比如说": 9331,
      "礼物": 9332,
      "提供": 9333,
      "月亮": 9334,
      "项目": 9335,
      "生产": 9336,
      "了个": 9337,
      "人了": 9338,
      "没事儿": 9339,
      "不去": 9340,
      "早上": 9341,
      "距离": 9342,
      "手里": 9343,
      "是这样": 9344,
      "hu": 9345,
      "着我": 9346,
      "找我": 9347,
      "小朋友": 9348,
      "感到": 9349,
      "最好的": 9350,
      "一片": 9351,
      "立刻": 9352,
      "中国的": 9353,
      "上次": 9354,
      "是我们": 9355,
      "本题": 9356,
      "那我们": 9357,
      "不如": 9358,
      "这事": 9359,
      "经历": 9360,
      "row": 9361,
      "有很多": 9362,
      "12": 9363,
      "找到了": 9364,
      "亲自": 9365,
      "简直": 9366,
      "起来了": 9367,
      "先走了": 9368,
      "arrow": 9369,
      "我爸": 9370,
      "实现": 9371,
      "就没": 9372,
      "政治": 9373,
      "a4": 9374,
      "方便": 9375,
      "四十": 9376,
      "你给我": 9377,
      "紧张": 9378,
      "内容": 9379,
      "不少": 9380,
      "收拾": 9381,
      "每个": 9382,
      "可惜": 9383,
      "去看": 9384,
      "的老": 9385,
      "上来": 9386,
      "力的": 9387,
      "男孩": 9388,
      "19": 9389,
      "导致": 9390,
      "一定是": 9391,
      "放弃": 9392,
      "一场": 9393,
      "现象": 9394,
      "因为我": 9395,
      "现在的": 9396,
      "不懂": 9397,
      "你这是": 9398,
      "当初": 9399,
      "行为": 9400,
      "所以我": 9401,
      "坏了": 9402,
      "地区": 9403,
      "第二天": 9404,
      "就把": 9405,
      "但是我": 9406,
      "是否": 9407,
      "了起来": 9408,
      "你把": 9409,
      "意义": 9410,
      "目前": 9411,
      "高的": 9412,
      "适合": 9413,
      "什么都": 9414,
      "你就是": 9415,
      "战争": 9416,
      "尾巴": 9417,
      "而是": 9418,
      "答案是": 9419,
      "看到了": 9420,
      "走啊": 9421,
      "很难": 9422,
      "两位": 9423,
      "他不": 9424,
      "大概": 9425,
      "师傅": 9426,
      "也不能": 9427,
      "又是": 9428,
      "今年": 9429,
      "过的": 9430,
      "垃圾": 9431,
      "就这样": 9432,
      "四个": 9433,
      "行行": 9434,
      "走到": 9435,
      "英雄": 9436,
      "艺术": 9437,
      "那个时候": 9438,
      "如今": 9439,
      "就这么": 9440,
      "敌人": 9441,
      "你一": 9442,
      "题目": 9443,
      "思想": 9444,
      "还得": 9445,
      "生日": 9446,
      "的样子": 9447,
      "兴趣": 9448,
      "掉了": 9449,
      "一块儿": 9450,
      "估计": 9451,
      "主意": 9452,
      "中间": 9453,
      "帮忙": 9454,
      "娘娘": 9455,
      "最终": 9456,
      "并不": 9457,
      "唯一": 9458,
      "你呢": 9459,
      "块钱": 9460,
      "脑袋": 9461,
      "种子": 9462,
      "如果你": 9463,
      "过去了": 9464,
      "活着": 9465,
      "和小": 9466,
      "也要": 9467,
      "也不会": 9468,
      "阳光": 9469,
      "仔细": 9470,
      "专业": 9471,
      "宝贝": 9472,
      "孩子们": 9473,
      "跑了": 9474,
      "给你们": 9475,
      "这这": 9476,
      "好吃": 9477,
      "表演": 9478,
      "这件事": 9479,
      "给了": 9480,
      "an4": 9481,
      "队的": 9482,
      "赶快": 9483,
      "汽车": 9484,
      "回头": 9485,
      "我不想": 9486,
      "到现在": 9487,
      "等我": 9488,
      "观众": 9489,
      "并没有": 9490,
      "蚂蚁": 9491,
      "小孩": 9492,
      "ha": 9493,
      "有时候": 9494,
      "她说": 9495,
      "动了": 9496,
      "做什么": 9497,
      "xi": 9498,
      "的地": 9499,
      "留下": 9500,
      "只好": 9501,
      "都能": 9502,
      "ao4": 9503,
      "肯定是": 9504,
      "果然": 9505,
      "cdot": 9506,
      "离婚": 9507,
      "形成": 9508,
      "我们在": 9509,
      "结构": 9510,
      "上班": 9511,
      "国际": 9512,
      "就说": 9513,
      "共同": 9514,
      "寻找": 9515,
      "你这么": 9516,
      "增加": 9517,
      "的声音": 9518,
      "这部": 9519,
      "服务": 9520,
      "成绩": 9521,
      "味道": 9522,
      "梦想": 9523,
      "困难": 9524,
      "我又": 9525,
      "的手": 9526,
      "企业": 9527,
      "忽然": 9528,
      "几年": 9529,
      "不说": 9530,
      "那就是": 9531,
      "相同": 9532,
      "是是": 9533,
      "普通": 9534,
      "那我就": 9535,
      "至于": 9536,
      "我对": 9537,
      "老人": 9538,
      "ji": 9539,
      "习惯": 9540,
      "耳朵": 9541,
      "喝酒": 9542,
      "来来来": 9543,
      "的水": 9544,
      "的生活": 9545,
      "不然": 9546,
      "有多": 9547,
      "检查": 9548,
      "尤其": 9549,
      "你不要": 9550,
      "她是": 9551,
      "十五": 9552,
      "着一": 9553,
      "着呢": 9554,
      "我把": 9555,
      "所谓": 9556,
      "我们俩": 9557,
      "意见": 9558,
      "伤害": 9559,
      "价值": 9560,
      "杀了": 9561,
      "想着": 9562,
      "压力": 9563,
      "恐怕": 9564,
      "世界上": 9565,
      "国民": 9566,
      "老公": 9567,
      "见面": 9568,
      "嫂子": 9569,
      "怎么说": 9570,
      "分子": 9571,
      "去哪儿": 9572,
      "在你": 9573,
      "ai4": 9574,
      "的呢": 9575,
      "满了": 9576,
      "下次": 9577,
      "获得": 9578,
      "还挺": 9579,
      "对方": 9580,
      "rightarrow": 9581,
      "你再": 9582,
      "我才": 9583,
      "过程中": 9584,
      "ov": 9585,
      "附近": 9586,
      "你呀": 9587,
      "说完": 9588,
      "给您": 9589,
      "不就": 9590,
      "ne": 9591,
      "那时候": 9592,
      "差不多": 9593,
      "一样的": 9594,
      "丈夫": 9595,
      "也就": 9596,
      "到的": 9597,
      "之间的": 9598,
      "保持": 9599,
      "可爱": 9600,
      "记住": 9601,
      "导演": 9602,
      "并且": 9603,
      "不出": 9604,
      "不及": 9605,
      "溶液": 9606,
      "温度": 9607,
      "体的": 9608,
      "正确答案是": 9609,
      "实力": 9610,
      "也可以": 9611,
      "可怜": 9612,
      "我相信": 9613,
      "冠军": 9614,
      "我呢": 9615,
      "通知": 9616,
      "量的": 9617,
      "一家": 9618,
      "是要": 9619,
      "老大": 9620,
      "发现了": 9621,
      "di": 9622,
      "此时": 9623,
      "我喜欢": 9624,
      "健康": 9625,
      "挑战": 9626,
      "关心": 9627,
      "受伤": 9628,
      "狮子": 9629,
      "到处": 9630,
      "松鼠": 9631,
      "必要": 9632,
      "心情": 9633,
      "人啊": 9634,
      "工程": 9635,
      "是我的": 9636,
      "行吗": 9637,
      "全国": 9638,
      "陛下": 9639,
      "你没": 9640,
      "跑到": 9641,
      "GRANDMOTHER": 9642,
      "长时间": 9643,
      "我们现在": 9644,
      "爱情": 9645,
      "后的": 9646,
      "不对": 9647,
      "时期": 9648,
      "分之": 9649,
      "ba": 9650,
      "小猪": 9651,
      "殿下": 9652,
      "在了": 9653,
      "氧化": 9654,
      "子上": 9655,
      "小时候": 9656,
      "团长": 9657,
      "队伍": 9658,
      "可不是": 9659,
      "星星": 9660,
      "是一种": 9661,
      "态度": 9662,
      "没问题": 9663,
      "出发": 9664,
      "发生了": 9665,
      "住在": 9666,
      "别别": 9667,
      "干净": 9668,
      "作品": 9669,
      "嫌疑": 9670,
      "我呀": 9671,
      "误会": 9672,
      "指挥": 9673,
      "配合": 9674,
      "说过": 9675,
      "随着": 9676,
      "一个小": 9677,
      "不同的": 9678,
      "是为了": 9679,
      "你得": 9680,
      "就有": 9681,
      "说说": 9682,
      "美丽的": 9683,
      "人呢": 9684,
      "故意": 9685,
      "你听": 9686,
      "年了": 9687,
      "性的": 9688,
      "我叫": 9689,
      "我这个": 9690,
      "都很": 9691,
      "着了": 9692,
      "你又": 9693,
      "视频": 9694,
      "也得": 9695,
      "传统": 9696,
      "意思是": 9697,
      "把她": 9698,
      "看过": 9699,
      "15": 9700,
      "一把": 9701,
      "一阵": 9702,
      "管理": 9703,
      "加入": 9704,
      "多久": 9705,
      "天的": 9706,
      "正确的是": 9707,
      "分别": 9708,
      "好好好": 9709,
      "教授": 9710,
      "和你": 9711,
      "不够": 9712,
      "欺负": 9713,
      "最好": 9714,
      "极了": 9715,
      "一口": 9716,
      "AB": 9717,
      "也好": 9718,
      "一张": 9719,
      "的吧": 9720,
      "还会": 9721,
      "这就": 9722,
      "很久": 9723,
      "下午": 9724,
      "事啊": 9725,
      "哎呦": 9726,
      "表达": 9727,
      "玩笑": 9728,
      "经验": 9729,
      "的家": 9730,
      "了一下": 9731,
      "教练": 9732,
      "未来": 9733,
      "我不能": 9734,
      "是他": 9735,
      "你还是": 9736,
      "手术": 9737,
      "我真": 9738,
      "动作": 9739,
      "可不": 9740,
      "在家": 9741,
      "警方": 9742,
      "空间": 9743,
      "提高": 9744,
      "目标": 9745,
      "天空": 9746,
      "我跟你": 9747,
      "产品": 9748,
      "将来": 9749,
      "真实": 9750,
      "人生": 9751,
      "考查": 9752,
      "我只": 9753,
      "底下": 9754,
      "的这": 9755,
      "over": 9756,
      "没有人": 9757,
      "一大": 9758,
      "天气": 9759,
      "主要是": 9760,
      "王爷": 9761,
      "你为什么": 9762,
      "相关": 9763,
      "基础": 9764,
      "不信": 9765,
      "怎么能": 9766,
      "被人": 9767,
      "三年": 9768,
      "至少": 9769,
      "死的": 9770,
      "对对对": 9771,
      "头发": 9772,
      "鼻子": 9773,
      "可知": 9774,
      "地的": 9775,
      "我还有": 9776,
      "而已": 9777,
      "它是": 9778,
      "试试": 9779,
      "我不会": 9780,
      "专门": 9781,
      "我只是": 9782,
      "建立": 9783,
      "跟我们": 9784,
      "恢复": 9785,
      "见了": 9786,
      "干啥": 9787,
      "优秀": 9788,
      "主席": 9789,
      "唱歌": 9790,
      "办公": 9791,
      "选手": 9792,
      "overrightarrow": 9793,
      "也太": 9794,
      "出门": 9795,
      "情报": 9796,
      "感受": 9797,
      "头上": 9798,
      "蝴蝶": 9799,
      "军的": 9800,
      "名的": 9801,
      "我希望": 9802,
      "没人": 9803,
      "满足": 9804,
      "还可以": 9805,
      "他就是": 9806,
      "定了": 9807,
      "期待": 9808,
      "建设": 9809,
      "还真": 9810,
      "我们都": 9811,
      "es": 9812,
      "什么的": 9813,
      "真正的": 9814,
      "题意": 9815,
      "明明": 9816,
      "单位": 9817,
      "了这": 9818,
      "这是我": 9819,
      "面上": 9820,
      "大王": 9821,
      "再来": 9822,
      "几乎": 9823,
      "值得": 9824,
      "并不是": 9825,
      "我一直": 9826,
      "那一": 9827,
      "承认": 9828,
      "其他的": 9829,
      "小花": 9830,
      "美的": 9831,
      "左右": 9832,
      "uo": 9833,
      "是呀": 9834,
      "也就是": 9835,
      "谁呀": 9836,
      "也不知道": 9837,
      "不怕": 9838,
      "从此": 9839,
      "要不要": 9840,
      "实际上": 9841,
      "用了": 9842,
      "执行": 9843,
      "18": 9844,
      "ng": 9845,
      "我记得": 9846,
      "你和": 9847,
      "来自": 9848,
      "大姐": 9849,
      "结合": 9850,
      "年轻人": 9851,
      "轻轻": 9852,
      "大声": 9853,
      "地下": 9854,
      "十年": 9855,
      "正是": 9856,
      "对他": 9857,
      "接触": 9858,
      "打了": 9859,
      "算了": 9860,
      "不是我": 9861,
      "一旦": 9862,
      "交代": 9863,
      "数据": 9864,
      "科技": 9865,
      "机器": 9866,
      "是不": 9867,
      "法律": 9868,
      "目的": 9869,
      "就去": 9870,
      "可能会": 9871,
      "想办法": 9872,
      "很大的": 9873,
      "送给": 9874,
      "提醒": 9875,
      "认真": 9876,
      "请问": 9877,
      "水平": 9878,
      "记录": 9879,
      "我听": 9880,
      "就好了": 9881,
      "所以说": 9882,
      "两只": 9883,
      "做好": 9884,
      "你到底": 9885,
      "究竟": 9886,
      "建议": 9887,
      "长大": 9888,
      "资源": 9889,
      "这么大": 9890,
      "定的": 9891,
      "怎样": 9892,
      "跟她": 9893,
      "周围": 9894,
      "全都": 9895,
      "的最": 9896,
      "没事吧": 9897,
      "凶手": 9898,
      "的对": 9899,
      "翅膀": 9900,
      "中国人": 9901,
      "后悔": 9902,
      "杀人": 9903,
      "也在": 9904,
      "大小": 9905,
      "电脑": 9906,
      "三天": 9907,
      "伤心": 9908,
      "zhei4": 9909,
      "还好": 9910,
      "不开": 9911,
      "不是你": 9912,
      "带来": 9913,
      "特殊": 9914,
      "建筑": 9915,
      "今天的": 9916,
      "漂亮的": 9917,
      "女的": 9918,
      "慢点": 9919,
      "到我": 9920,
      "忘记": 9921,
      "的一些": 9922,
      "胜利": 9923,
      "有一些": 9924,
      "夫妻": 9925,
      "想象": 9926,
      "脾气": 9927,
      "抓住": 9928,
      "sin": 9929,
      "测量": 9930,
      "嘴巴": 9931,
      "学会": 9932,
      "有一次": 9933,
      "ANK": 9934,
      "回去吧": 9935,
      "十八": 9936,
      "你放心": 9937,
      "BL": 9938,
      "满意": 9939,
      "然而": 9940,
      "ir": 9941,
      "是怎么": 9942,
      "还有一个": 9943,
      "萝卜": 9944,
      "银行": 9945,
      "这条": 9946,
      "意识": 9947,
      "很大": 9948,
      "着你": 9949,
      "什么事儿": 9950,
      "了很多": 9951,
      "我们可以": 9952,
      "叫做": 9953,
      "BLANK": 9954,
      "去啊": 9955,
      "的孩子": 9956,
      "台上": 9957,
      "知道吗": 9958,
      "一下子": 9959,
      "体育": 9960,
      "长官": 9961,
      "失败": 9962,
      "明星": 9963,
      "功能": 9964,
      "二零一": 9965,
      "不停": 9966,
      "因为他": 9967,
      "伙伴": 9968,
      "女朋友": 9969,
      "叫我": 9970,
      "树上": 9971,
      "随时": 9972,
      "悄悄": 9973,
      "小兔": 9974,
      "您说": 9975,
      "11": 9976,
      "co": 9977,
      "道歉": 9978,
      "今日": 9979,
      "制度": 9980,
      "来到了": 9981,
      "送到": 9982,
      "再次": 9983,
      "不像": 9984,
      "得好": 9985,
      "面的": 9986,
      "给他们": 9987,
      "去的": 9988,
      "没办法": 9989,
      "我最": 9990,
      "放下": 9991,
      "书记": 9992,
      "这个是": 9993,
      "传播": 9994,
      "都已经": 9995,
      "来找": 9996,
      "线索": 9997,
      "人在": 9998,
      "年纪": 9999,
      "不喜欢": 10000,
      "生长": 10001,
      "痛苦": 10002,
      "标准": 10003,
      "排除": 10004,
      "叶子": 10005,
      "问问": 10006,
      "每个人": 10007,
      "更多": 10008,
      "一句": 10009,
      "外的": 10010,
      "他还": 10011,
      "否则": 10012,
      "你对": 10013,
      "想的": 10014,
      "这话": 10015,
      "一趟": 10016,
      "了好": 10017,
      "资料": 10018,
      "你不能": 10019,
      "站住": 10020,
      "这个时候": 10021,
      "他要": 10022,
      "中心": 10023,
      "半天": 10024,
      "be": 10025,
      "去看看": 10026,
      "zh": 10027,
      "牺牲": 10028,
      "制作": 10029,
      "小猴": 10030,
      "案子": 10031,
      "他会": 10032,
      "你说的": 10033,
      "具体": 10034,
      "说道": 10035,
      "太子": 10036,
      "早点": 10037,
      "对的": 10038,
      "等于": 10039,
      "消失": 10040,
      "直到": 10041,
      "大海": 10042,
      "主动": 10043,
      "这回": 10044,
      "师兄": 10045,
      "爸爸妈妈": 10046,
      "火车": 10047,
      "规矩": 10048,
      "战斗": 10049,
      "不久": 10050,
      "谢谢谢谢": 10051,
      "乌龟": 10052,
      "的工作": 10053,
      "加上": 10054,
      "16": 10055,
      "没了": 10056,
      "这两": 10057,
      "特点": 10058,
      "一遍": 10059,
      "喜欢看": 10060,
      "等你": 10061,
      "不出来": 10062,
      "就好": 10063,
      "讨厌": 10064,
      "就得": 10065,
      "情绪": 10066,
      "实在是": 10067,
      "工具": 10068,
      "shi4": 10069,
      "记忆": 10070,
      "现实": 10071,
      "你快": 10072,
      "eng": 10073,
      "心理": 10074,
      "减少": 10075,
      "等一下": 10076,
      "偷偷": 10077,
      "似乎": 10078,
      "女生": 10079,
      "ou3": 10080,
      "能量": 10081,
      "熟悉": 10082,
      "不愿意": 10083,
      "不动": 10084,
      "你这样": 10085,
      "pi": 10086,
      "这一次": 10087,
      "十一": 10088,
      "都可以": 10089,
      "为你": 10090,
      "事了": 10091,
      "咖啡": 10092,
      "不成": 10093,
      "时刻": 10094,
      "是真的": 10095,
      "的我": 10096,
      "什么东西": 10097,
      "交给": 10098,
      "这么多年": 10099,
      "变成了": 10100,
      "ch": 10101,
      "从前": 10102,
      "你们两个": 10103,
      "毕业": 10104,
      "说他": 10105,
      "局长": 10106,
      "玻璃": 10107,
      "家伙": 10108,
      "复杂": 10109,
      "这孩子": 10110,
      "不再": 10111,
      "小老鼠": 10112,
      "参与": 10113,
      "多么": 10114,
      "给大家": 10115,
      "的关系": 10116,
      "在我们": 10117,
      "事实": 10118,
      "可怕": 10119,
      "他现在": 10120,
      "尽快": 10121,
      "然后呢": 10122,
      "de": 10123,
      "行啊": 10124,
      "你应该": 10125,
      "还有什么": 10126,
      "投资": 10127,
      "然后就": 10128,
      "你以为": 10129,
      "上学": 10130,
      "不下": 10131,
      "我感觉": 10132,
      "好朋友": 10133,
      "水的": 10134,
      "经理": 10135,
      "找不到": 10136,
      "和我": 10137,
      "粮食": 10138,
      "改革": 10139,
      "日军": 10140,
      "喜欢的": 10141,
      "自从": 10142,
      "生态": 10143,
      "互相": 10144,
      "直线": 10145,
      "立即": 10146,
      "东北": 10147,
      "上一": 10148,
      "必须要": 10149,
      "动手": 10150,
      "娃娃": 10151,
      "球员": 10152,
      "多少钱": 10153,
      "创造": 10154,
      "叫什么": 10155,
      "彻底": 10156,
      "来吧": 10157,
      "集团": 10158,
      "相互": 10159,
      "小鸟": 10160,
      "他想": 10161,
      "的了": 10162,
      "的那种": 10163,
      "明显": 10164,
      "电视剧": 10165,
      "眼前": 10166,
      "尽管": 10167,
      "稳定": 10168,
      "做到": 10169,
      "才会": 10170,
      "激动": 10171,
      "读书": 10172,
      "年龄": 10173,
      "说吧": 10174,
      "干什么呀": 10175,
      "精彩": 10176,
      "正式": 10177,
      "怎么样了": 10178,
      "那那": 10179,
      "一路": 10180,
      "暂时": 10181,
      "我好": 10182,
      "我家": 10183,
      "哪有": 10184,
      "背后": 10185,
      "解放": 10186,
      "的高": 10187,
      "掌握": 10188,
      "提出": 10189,
      "基因": 10190,
      "得太": 10191,
      "抗日": 10192,
      "不就是": 10193,
      "在一个": 10194,
      "蜜蜂": 10195,
      "不许": 10196,
      "通常": 10197,
      "男朋友": 10198,
      "小白兔": 10199,
      "我一定": 10200,
      "看起来": 10201,
      "说不定": 10202,
      "的电": 10203,
      "做出": 10204,
      "你爸": 10205,
      "正确的": 10206,
      "两人": 10207,
      "了呀": 10208,
      "千万别": 10209,
      "百分之": 10210,
      "理由": 10211,
      "真的很": 10212,
      "程度": 10213,
      "100": 10214,
      "办公室": 10215,
      "我刚才": 10216,
      "了一些": 10217,
      "也能": 10218,
      "之一": 10219,
      "之中": 10220,
      "说着": 10221,
      "脑子": 10222,
      "醒了": 10223,
      "去做": 10224,
      "犯罪": 10225,
      "这场": 10226,
      "ang4": 10227,
      "a1": 10228,
      "意外": 10229,
      "星期": 10230,
      "体现": 10231,
      "桌子": 10232,
      "留在": 10233,
      "我怕": 10234,
      "有事": 10235,
      "冬天": 10236,
      "每一个": 10237,
      "老头": 10238,
      "干吗呀": 10239,
      "派人": 10240,
      "鸡蛋": 10241,
      "吸引": 10242,
      "木头": 10243,
      "的一种": 10244,
      "都说": 10245,
      "没有什么": 10246,
      "呼吸": 10247,
      "lai2": 10248,
      "三百": 10249,
      "整天": 10250,
      "顺利": 10251,
      "二位": 10252,
      "你今天": 10253,
      "只见": 10254,
      "会议": 10255,
      "制造": 10256,
      "董事": 10257,
      "老百姓": 10258,
      "啊这": 10259,
      "拿到": 10260,
      "本身": 10261,
      "发出": 10262,
      "为何": 10263,
      "再说了": 10264,
      "范围": 10265,
      "公司的": 10266,
      "笑了": 10267,
      "职业": 10268,
      "依然": 10269,
      "聊天": 10270,
      "点点": 10271,
      "人物": 10272,
      "不来": 10273,
      "一点儿": 10274,
      "成立": 10275,
      "独立": 10276,
      "相当": 10277,
      "刺猬": 10278,
      "网络": 10279,
      "身子": 10280,
      "他又": 10281,
      "以来": 10282,
      "国内": 10283,
      "姐妹": 10284,
      "她就": 10285,
      "这样子": 10286,
      "他一": 10287,
      "做得": 10288,
      "的钱": 10289,
      "的感觉": 10290,
      "下一": 10291,
      "怎么可能": 10292,
      "恭喜": 10293,
      "BA": 10294,
      "春天": 10295,
      "有钱": 10296,
      "打的": 10297,
      "利益": 10298,
      "女子": 10299,
      "原谅": 10300,
      "台湾": 10301,
      "买了": 10302,
      "开门": 10303,
      "方案": 10304,
      "从来没有": 10305,
      "国民党": 10306,
      "客人": 10307,
      "坐坐": 10308,
      "有可能": 10309,
      "交通": 10310,
      "恋爱": 10311,
      "更多的": 10312,
      "平安": 10313,
      "好像是": 10314,
      "南京": 10315,
      "你妈": 10316,
      "在看": 10317,
      "计算": 10318,
      "笑着": 10319,
      "的日子": 10320,
      "把自己": 10321,
      "五年": 10322,
      "中华": 10323,
      "形状": 10324,
      "想过": 10325,
      "干了": 10326,
      "香港": 10327,
      "不是说": 10328,
      "cos": 10329,
      "我国": 10330,
      "天上": 10331,
      "军事": 10332,
      "躺在": 10333,
      "方的": 10334,
      "我知道了": 10335,
      "今儿": 10336,
      "场上": 10337,
      "我吗": 10338,
      "是最": 10339,
      "世纪": 10340,
      "就被": 10341,
      "公公": 10342,
      "这样吧": 10343,
      "本事": 10344,
      "看得": 10345,
      "屋里": 10346,
      "对手": 10347,
      "难受": 10348,
      "的机会": 10349,
      "找个": 10350,
      "回去了": 10351,
      "小猫": 10352,
      "想起": 10353,
      "他也": 10354,
      "发挥": 10355,
      "基本上": 10356,
      "的确": 10357,
      "上课": 10358,
      "心中": 10359,
      "什么意思啊": 10360,
      "拒绝": 10361,
      "是想": 10362,
      "买的": 10363,
      "在水": 10364,
      "对我们": 10365,
      "都被": 10366,
      "准确": 10367,
      "你真的": 10368,
      "u2": 10369,
      "专家": 10370,
      "规定": 10371,
      "失望": 10372,
      "方程": 10373,
      "在大": 10374,
      "委屈": 10375,
      "写的": 10376,
      "农民": 10377,
      "干活": 10378,
      "打个": 10379,
      "非常的": 10380,
      "角色": 10381,
      "钥匙": 10382,
      "你真": 10383,
      "玩具": 10384,
      "我心里": 10385,
      "的花": 10386,
      "面包": 10387,
      "帽子": 10388,
      "拿出": 10389,
      "交流": 10390,
      "游泳": 10391,
      "过来了": 10392,
      "造成": 10393,
      "提前": 10394,
      "着他": 10395,
      "阶段": 10396,
      "我做": 10397,
      "一起去": 10398,
      "哭了": 10399,
      "英国": 10400,
      "ing": 10401,
      "厨房": 10402,
      "记者": 10403,
      "我就不": 10404,
      "便宜": 10405,
      "事件": 10406,
      "孩子的": 10407,
      "找你": 10408,
      "数的": 10409,
      "了我们": 10410,
      "考试": 10411,
      "感动": 10412,
      "元素": 10413,
      "矛盾": 10414,
      "有一种": 10415,
      "孩儿": 10416,
      "No": 10417,
      "国家的": 10418,
      "没有啊": 10419,
      "文明": 10420,
      "进步": 10421,
      "我听说": 10422,
      "热闹": 10423,
      "即使": 10424,
      "您看": 10425,
      "死亡": 10426,
      "光的": 10427,
      "眼泪": 10428,
      "土地": 10429,
      "等到": 10430,
      "bu4": 10431,
      "化学": 10432,
      "坐下": 10433,
      "羽毛": 10434,
      "我也不知道": 10435,
      "红色": 10436,
      "信任": 10437,
      "作业": 10438,
      "事业": 10439,
      "出现了": 10440,
      "看的": 10441,
      "行的": 10442,
      "半个": 10443,
      "快走": 10444,
      "效果": 10445,
      "好玩": 10446,
      "话说": 10447,
      "汇报": 10448,
      "网上": 10449,
      "类的": 10450,
      "迅速": 10451,
      "案件": 10452,
      "反而": 10453,
      "善良": 10454,
      "培养": 10455,
      "十六": 10456,
      "这天": 10457,
      "尤其是": 10458,
      "走的": 10459,
      "回来的": 10460,
      "男主": 10461,
      "树林": 10462,
      "多年": 10463,
      "招呼": 10464,
      "温暖": 10465,
      "难过": 10466,
      "在他": 10467,
      "心想": 10468,
      "这么大的": 10469,
      "我要是": 10470,
      "你刚才": 10471,
      "现在是": 10472,
      "原子": 10473,
      "老子": 10474,
      "糊涂": 10475,
      "清楚了": 10476,
      "儿啊": 10477,
      "就想": 10478,
      "现代": 10479,
      "形式": 10480,
      "谁啊": 10481,
      "说啊": 10482,
      "wo": 10483,
      "少年": 10484,
      "凭什么": 10485,
      "干的": 10486,
      "仍然": 10487,
      "一句话": 10488,
      "达到": 10489,
      "他了": 10490,
      "空中": 10491,
      "印象": 10492,
      "边的": 10493,
      "这一切": 10494,
      "回了": 10495,
      "文章": 10496,
      "等待": 10497,
      "放开": 10498,
      "呢是": 10499,
      "en2": 10500,
      "讨论": 10501,
      "你那": 10502,
      "特征": 10503,
      "我啊": 10504,
      "累了": 10505,
      "小狗": 10506,
      "开玩笑": 10507,
      "脸上": 10508,
      "来得": 10509,
      "别动": 10510,
      "当地": 10511,
      "好好地": 10512,
      "剩下": 10513,
      "差点": 10514,
      "运动员": 10515,
      "了几": 10516,
      "答案为": 10517,
      "武器": 10518,
      "妈妈的": 10519,
      "球队": 10520,
      "真相": 10521,
      "就是我": 10522,
      "最大": 10523,
      "什么样的": 10524,
      "里头": 10525,
      "太多": 10526,
      "尊重": 10527,
      "出去了": 10528,
      "安静": 10529,
      "或者是": 10530,
      "就行了": 10531,
      "行不行": 10532,
      "晚了": 10533,
      "婆婆": 10534,
      "哪些": 10535,
      "昨天晚上": 10536,
      "一名": 10537,
      "律师": 10538,
      "我当时": 10539,
      "者的": 10540,
      "兴奋": 10541,
      "军队": 10542,
      "30": 10543,
      "破坏": 10544,
      "出现在": 10545,
      "丰富": 10546,
      "十三": 10547,
      "床上": 10548,
      "这下": 10549,
      "你们家": 10550,
      "面积": 10551,
      "性格": 10552,
      "面子": 10553,
      "眼里": 10554,
      "政策": 10555,
      "hao3": 10556,
      "报道": 10557,
      "邻居": 10558,
      "院长": 10559,
      "已知": 10560,
      "角度": 10561,
      "你们都": 10562,
      "往前": 10563,
      "山羊": 10564,
      "开车": 10565,
      "确实是": 10566,
      "中午": 10567,
      "一辈子": 10568,
      "五百": 10569,
      "治疗": 10570,
      "长颈": 10571,
      "一根": 10572,
      "统一": 10573,
      "就是你": 10574,
      "跳舞": 10575,
      "假的": 10576,
      "劳动": 10577,
      "平衡": 10578,
      "穿着": 10579,
      "形象": 10580,
      "白天": 10581,
      "森林里": 10582,
      "他把": 10583,
      "有请": 10584,
      "公鸡": 10585,
      "勇敢": 10586,
      "气的": 10587,
      "我带": 10588,
      "人哪": 10589,
      "兄弟们": 10590,
      "一份": 10591,
      "长颈鹿": 10592,
      "水果": 10593,
      "相对": 10594,
      "救命": 10595,
      "部的": 10596,
      "就是因为": 10597,
      "您好": 10598,
      "要不是": 10599,
      "生存": 10600,
      "怎么着": 10601,
      "做一个": 10602,
      "青年": 10603,
      "今天晚上": 10604,
      "很多人": 10605,
      "您是": 10606,
      "留下来": 10607,
      "我们也": 10608,
      "别人的": 10609,
      "这也是": 10610,
      "这么做": 10611,
      "lan": 10612,
      "别说": 10613,
      "好嘞": 10614,
      "跟他们": 10615,
      "主持": 10616,
      "吓得": 10617,
      "点的": 10618,
      "你能不能": 10619,
      "科长": 10620,
      "全是": 10621,
      "听听": 10622,
      "蛋糕": 10623,
      "追求": 10624,
      "同学们": 10625,
      "这两个": 10626,
      "多多": 10627,
      "手上": 10628,
      "的意思": 10629,
      "了大": 10630,
      "为什么不": 10631,
      "无聊": 10632,
      "你不知道": 10633,
      "妈妈说": 10634,
      "工业": 10635,
      "你喜欢": 10636,
      "引起": 10637,
      "这是一个": 10638,
      "城里": 10639,
      "啊啊": 10640,
      "学的": 10641,
      "的一切": 10642,
      "有所": 10643,
      "乌鸦": 10644,
      "语言": 10645,
      "了这个": 10646,
      "洗澡": 10647,
      "的比赛": 10648,
      "超级": 10649,
      "和平": 10650,
      "羡慕": 10651,
      "公安": 10652,
      "处长": 10653,
      "女孩子": 10654,
      "嘉宾": 10655,
      "之下": 10656,
      "在一": 10657,
      "古代": 10658,
      "作战": 10659,
      "有意思": 10660,
      "口气": 10661,
      "队员": 10662,
      "会的": 10663,
      "白的": 10664,
      "本题考查": 10665,
      "把他们": 10666,
      "大伙": 10667,
      "型的": 10668,
      "好奇": 10669,
      "好了好了": 10670,
      "山上": 10671,
      "因素": 10672,
      "做饭": 10673,
      "div": 10674,
      "价格": 10675,
      "土壤": 10676,
      "工资": 10677,
      "他对": 10678,
      "不要再": 10679,
      "吃点": 10680,
      "还是要": 10681,
      "同样": 10682,
      "打扰": 10683,
      "数字": 10684,
      "用来": 10685,
      "不变": 10686,
      "了就": 10687,
      "气体": 10688,
      "生病": 10689,
      "享受": 10690,
      "组成": 10691,
      "渐渐": 10692,
      "cir": 10693,
      "一时": 10694,
      "肯定会": 10695,
      "谢谢啊": 10696,
      "嘴里": 10697,
      "男子": 10698,
      "地问": 10699,
      "lant": 10700,
      "命运": 10701,
      "理想": 10702,
      "一个月": 10703,
      "十万": 10704,
      "强的": 10705,
      "宣布": 10706,
      "出生": 10707,
      "可真": 10708,
      "常常": 10709,
      "之外": 10710,
      "到这儿": 10711,
      "描述": 10712,
      "丫头": 10713,
      "circ": 10714,
      "qs": 10715,
      "开放": 10716,
      "胡说": 10717,
      "女士": 10718,
      "qslant": 10719,
      "儿的": 10720,
      "好久": 10721,
      "银子": 10722,
      "在哪里": 10723,
      "下来了": 10724,
      "超过": 10725,
      "看见了": 10726,
      "的朋友": 10727,
      "全球": 10728,
      "粉丝": 10729,
      "称为": 10730,
      "八路": 10731,
      "战士": 10732,
      "咱们的": 10733,
      "他有": 10734,
      "动物们": 10735,
      "葡萄": 10736,
      "呢就是": 10737,
      "只不过": 10738,
      "平常": 10739,
      "这点": 10740,
      "心了": 10741,
      "看一下": 10742,
      "我之前": 10743,
      "病人": 10744,
      "看你": 10745,
      "那个人": 10746,
      "一段": 10747,
      "你不会": 10748,
      "在家里": 10749,
      "电流": 10750,
      "积极": 10751,
      "一个大": 10752,
      "或许": 10753,
      "求求": 10754,
      "婚礼": 10755,
      "允许": 10756,
      "函数": 10757,
      "大事": 10758,
      "我先走了": 10759,
      "婚姻": 10760,
      "是很": 10761,
      "14": 10762,
      "是指": 10763,
      "合同": 10764,
      "放过": 10765,
      "够了": 10766,
      "电子": 10767,
      "这可是": 10768,
      "我刚": 10769,
      "老实": 10770,
      "蘑菇": 10771,
      "你不用": 10772,
      "第二个": 10773,
      "吃吧": 10774,
      "我马上": 10775,
      "和他": 10776,
      "伯伯": 10777,
      "演的": 10778,
      "委员": 10779,
      "尸体": 10780,
      "掌柜": 10781,
      "都得": 10782,
      "卫生": 10783,
      "你没有": 10784,
      "不见了": 10785,
      "大爷": 10786,
      "我一定会": 10787,
      "的方式": 10788,
      "逐渐": 10789,
      "力气": 10790,
      "推荐": 10791,
      "大家好": 10792,
      "喝了": 10793,
      "是这样的": 10794,
      "这是什么": 10795,
      "比我": 10796,
      "wo3": 10797,
      "部门": 10798,
      "太后": 10799,
      "树叶": 10800,
      "很喜欢": 10801,
      "西瓜": 10802,
      "一人": 10803,
      "是从": 10804,
      "神秘": 10805,
      "耽误": 10806,
      "伙子": 10807,
      "几次": 10808,
      "失去": 10809,
      "智能": 10810,
      "就开始": 10811,
      "屁股": 10812,
      "闺女": 10813,
      "这时候": 10814,
      "内心": 10815,
      "感兴趣": 10816,
      "小松鼠": 10817,
      "她在": 10818,
      "这个问题": 10819,
      "这只": 10820,
      "一开始": 10821,
      "这样啊": 10822,
      "山的": 10823,
      "巨大的": 10824,
      "状况": 10825,
      "一想": 10826,
      "锻炼": 10827,
      "的新": 10828,
      "您就": 10829,
      "我发现": 10830,
      "鸭子": 10831,
      "说实话": 10832,
      "监控": 10833,
      "知不知道": 10834,
      "里面的": 10835,
      "不明白": 10836,
      "事儿啊": 10837,
      "用于": 10838,
      "da": 10839,
      "知道的": 10840,
      "适应": 10841,
      "对付": 10842,
      "打听": 10843,
      "玩儿": 10844,
      "金属": 10845,
      "的发展": 10846,
      "不吃": 10847,
      "小小": 10848,
      "13": 10849,
      "媳妇儿": 10850,
      "准备好了": 10851,
      "小小的": 10852,
      "CD": 10853,
      "冷静": 10854,
      "你我": 10855,
      "国外": 10856,
      "拥有": 10857,
      "非要": 10858,
      "邀请": 10859,
      "群众": 10860,
      "反映": 10861,
      "神奇": 10862,
      "朝廷": 10863,
      "过得": 10864,
      "就是一个": 10865,
      "他们在": 10866,
      "胡子": 10867,
      "同志们": 10868,
      "绿色": 10869,
      "公平": 10870,
      "更好": 10871,
      "之内": 10872,
      "al": 10873,
      "嫌疑人": 10874,
      "一听": 10875,
      "怎么办呢": 10876,
      "早晨": 10877,
      "不但": 10878,
      "旅游": 10879,
      "25": 10880,
      "到达": 10881,
      "刺激": 10882,
      "你说你": 10883,
      "损失": 10884,
      "吵架": 10885,
      "小兔子": 10886,
      "一半": 10887,
      "始终": 10888,
      "来不及": 10889,
      "的原因": 10890,
      "传说": 10891,
      "进攻": 10892,
      "he1": 10893,
      "这才": 10894,
      "的你": 10895,
      "花园": 10896,
      "就不会": 10897,
      "哦哦": 10898,
      "就是他": 10899,
      "欧洲": 10900,
      "成长": 10901,
      "断了": 10902,
      "原来是": 10903,
      "丢了": 10904,
      "五个": 10905,
      "他能": 10906,
      "成熟": 10907,
      "离开了": 10908,
      "也挺": 10909,
      "情感": 10910,
      "一座": 10911,
      "劲儿": 10912,
      "放了": 10913,
      "就是要": 10914,
      "就行": 10915,
      "合理": 10916,
      "都不会": 10917,
      "不需要": 10918,
      "想去": 10919,
      "三角": 10920,
      "你说什么": 10921,
      "不错的": 10922,
      "学院": 10923,
      "是由": 10924,
      "的路": 10925,
      "特别的": 10926,
      "踏实": 10927,
      "营养": 10928,
      "从而": 10929,
      "分享": 10930,
      "威胁": 10931,
      "符合题意": 10932,
      "瞬间": 10933,
      "就是在": 10934,
      "士兵": 10935,
      "的影响": 10936,
      "司机": 10937,
      "碰到": 10938,
      "同事": 10939,
      "慢慢地": 10940,
      "我给": 10941,
      "你有什么": 10942,
      "舞台": 10943,
      "一千": 10944,
      "浪费": 10945,
      "ca": 10946,
      "参谋": 10947,
      "明的": 10948,
      "分手": 10949,
      "红的": 10950,
      "转移": 10951,
      "很少": 10952,
      "竞争": 10953,
      "广告": 10954,
      "江湖": 10955,
      "一共": 10956,
      "十九": 10957,
      "及时": 10958,
      "联合": 10959,
      "报仇": 10960,
      "u1": 10961,
      "上下": 10962,
      "不让": 10963,
      "对着": 10964,
      "争取": 10965,
      "Yes": 10966,
      "回忆": 10967,
      "因为你": 10968,
      "的风": 10969,
      "跟你们": 10970,
      "有问题": 10971,
      "行业": 10972,
      "重点": 10973,
      "年代": 10974,
      "快去": 10975,
      "这都是": 10976,
      "好吃的": 10977,
      "班长": 10978,
      "在1": 10979,
      "贵的": 10980,
      "急忙": 10981,
      "愿望": 10982,
      "弟兄": 10983,
      "灰狼": 10984,
      "赢了": 10985,
      "一颗": 10986,
      "所以我们": 10987,
      "消费": 10988,
      "八年": 10989,
      "任何人": 10990,
      "原则": 10991,
      "蜘蛛": 10992,
      "没有办法": 10993,
      "遗憾": 10994,
      "那只": 10995,
      "有一点": 10996,
      "在那儿": 10997,
      "原本": 10998,
      "到底是": 10999,
      "吩咐": 11000,
      "盯着": 11001,
      "吃完": 11002,
      "最高": 11003,
      "二哥": 11004,
      "四年": 11005,
      "接近": 11006,
      "一眼": 11007,
      "的不": 11008,
      "难以": 11009,
      "刚好": 11010,
      "一面": 11011,
      "他俩": 11012,
      "你有没有": 11013,
      "孙子": 11014,
      "得多": 11015,
      "不小心": 11016,
      "就跟": 11017,
      "我爱": 11018,
      "这份": 11019,
      "我到": 11020,
      "两百": 11021,
      "欣赏": 11022,
      "无关": 11023,
      "我就想": 11024,
      "我也不": 11025,
      "的主": 11026,
      "小狐狸": 11027,
      "智慧": 11028,
      "远远": 11029,
      "让你们": 11030,
      "开始了": 11031,
      "了下来": 11032,
      "给我的": 11033,
      "博士": 11034,
      "the": 11035,
      "场的": 11036,
      "送你": 11037,
      "乖乖": 11038,
      "设备": 11039,
      "17": 11040,
      "到这个": 11041,
      "一群": 11042,
      "真好": 11043,
      "你就别": 11044,
      "玩意": 11045,
      "还不是": 11046,
      "我们这个": 11047,
      "大会": 11048,
      "为我": 11049,
      "团队": 11050,
      "毛病": 11051,
      "信心": 11052,
      "西方": 11053,
      "内部": 11054,
      "首歌": 11055,
      "你干吗": 11056,
      "呢我": 11057,
      "打仗": 11058,
      "重的": 11059,
      "破了": 11060,
      "废话": 11061,
      "什么叫": 11062,
      "旅行": 11063,
      "污染": 11064,
      "男生": 11065,
      "朋友们": 11066,
      "听着": 11067,
      "真心": 11068,
      "都快": 11069,
      "来啊": 11070,
      "这样的话": 11071,
      "mo": 11072,
      "一杯": 11073,
      "在地": 11074,
      "在我的": 11075,
      "处的": 11076,
      "一个个": 11077,
      "你说这": 11078,
      "当成": 11079,
      "想了": 11080,
      "酒店": 11081,
      "明确": 11082,
      "听说过": 11083,
      "开的": 11084,
      "安慰": 11085,
      "我从": 11086,
      "此事": 11087,
      "的歌": 11088,
      "就是为了": 11089,
      "一点点": 11090,
      "帝国": 11091,
      "50": 11092,
      "的这种": 11093,
      "就是想": 11094,
      "文学": 11095,
      "夏天": 11096,
      "tri": 11097,
      "期间": 11098,
      "na": 11099,
      "董事长": 11100,
      "望着": 11101,
      "身上的": 11102,
      "动的": 11103,
      "最重要": 11104,
      "的前": 11105,
      "抱着": 11106,
      "玉米": 11107,
      "窗户": 11108,
      "了嘛": 11109,
      "另一个": 11110,
      "他们是": 11111,
      "承担": 11112,
      "物理": 11113,
      "的嘛": 11114,
      "而不是": 11115,
      "有机会": 11116,
      "骄傲": 11117,
      "他们俩": 11118,
      "厕所": 11119,
      "心疼": 11120,
      "长大了": 11121,
      "就是这个": 11122,
      "陪你": 11123,
      "轻松": 11124,
      "还说": 11125,
      "特务": 11126,
      "青春": 11127,
      "操作": 11128,
      "kan4": 11129,
      "机关": 11130,
      "创新": 11131,
      "教训": 11132,
      "纷纷": 11133,
      "yi2": 11134,
      "采访": 11135,
      "什么样": 11136,
      "把小": 11137,
      "老太太": 11138,
      "六十": 11139,
      "多谢": 11140,
      "大树": 11141,
      "民主": 11142,
      "玫瑰": 11143,
      "开会": 11144,
      "来着": 11145,
      "试题": 11146,
      "车的": 11147,
      "了出来": 11148,
      "大叔": 11149,
      "每年": 11150,
      "好人": 11151,
      "不足": 11152,
      "又有": 11153,
      "得意": 11154,
      "他不是": 11155,
      "等会儿": 11156,
      "越大": 11157,
      "特意": 11158,
      "出一": 11159,
      "不能再": 11160,
      "令人": 11161,
      "你已经": 11162,
      "请求": 11163,
      "死我了": 11164,
      "新鲜": 11165,
      "性命": 11166,
      "我们去": 11167,
      "的主要": 11168,
      "件事": 11169,
      "皇后": 11170,
      "站长": 11171,
      "给它": 11172,
      "两句": 11173,
      "幼儿": 11174,
      "把握": 11175,
      "表面": 11176,
      "他已经": 11177,
      "你也是": 11178,
      "他自己": 11179,
      "这一点": 11180,
      "社会主义": 11181,
      "度的": 11182,
      "魔法": 11183,
      "这可": 11184,
      "回家了": 11185,
      "岩石": 11186,
      "调整": 11187,
      "就是那个": 11188,
      "向前": 11189,
      "数学": 11190,
      "我问": 11191,
      "这张": 11192,
      "这句话": 11193,
      "我就觉得": 11194,
      "名叫": 11195,
      "员工": 11196,
      "怎么回事啊": 11197,
      "一段时间": 11198,
      "呢你": 11199,
      "们儿": 11200,
      "是大": 11201,
      "打死": 11202,
      "工厂": 11203,
      "的重要": 11204,
      "规则": 11205,
      "全世界": 11206,
      "一会": 11207,
      "王后": 11208,
      "有的时候": 11209,
      "什么人": 11210,
      "走进": 11211,
      "走着": 11212,
      "尝尝": 11213,
      "那他": 11214,
      "亲爱的": 11215,
      "那你就": 11216,
      "我爹": 11217,
      "神经": 11218,
      "又不是": 11219,
      "七八": 11220,
      "我认为": 11221,
      "来讲": 11222,
      "还不错": 11223,
      "不舒服": 11224,
      "我看到": 11225,
      "花的": 11226,
      "行了行了": 11227,
      "心思": 11228,
      "稍微": 11229,
      "七年": 11230,
      "吸收": 11231,
      "太多了": 11232,
      "练习": 11233,
      "40": 11234,
      "河边": 11235,
      "谁都": 11236,
      "区域": 11237,
      "受了": 11238,
      "微信": 11239,
      "含有": 11240,
      "特别好": 11241,
      "校长": 11242,
      "请您": 11243,
      "反对": 11244,
      "取得": 11245,
      "为难": 11246,
      "的过程": 11247,
      "笑话": 11248,
      "加强": 11249,
      "平均": 11250,
      "不大": 11251,
      "体积": 11252,
      "女主": 11253,
      "权利": 11254,
      "angle": 11255,
      "舍不得": 11256,
      "项是": 11257,
      "不该": 11258,
      "重庆": 11259,
      "文字": 11260,
      "猎人": 11261,
      "观点": 11262,
      "故答案为": 11263,
      "自信": 11264,
      "我以为": 11265,
      "重大": 11266,
      "物体的": 11267,
      "充分": 11268,
      "受不了": 11269,
      "仿佛": 11270,
      "可得": 11271,
      "飞行": 11272,
      "ya": 11273,
      "了一会儿": 11274,
      "规模": 11275,
      "各个": 11276,
      "这个东西": 11277,
      "这些东西": 11278,
      "骨头": 11279,
      "保险": 11280,
      "有趣": 11281,
      "一家人": 11282,
      "体验": 11283,
      "点了": 11284,
      "带领": 11285,
      "有利": 11286,
      "很多的": 11287,
      "树枝": 11288,
      "高中": 11289,
      "小鱼": 11290,
      "箱子": 11291,
      "我找": 11292,
      "但是他": 11293,
      "决心": 11294,
      "好事": 11295,
      "内的": 11296,
      "惊喜": 11297,
      "是你的": 11298,
      "车上": 11299,
      "①②": 11300,
      "了那": 11301,
      "红军": 11302,
      "个儿": 11303,
      "呢我们": 11304,
      "师长": 11305,
      "草原": 11306,
      "科学家": 11307,
      "的方法": 11308,
      "要想": 11309,
      "这部电影": 11310,
      "保密": 11311,
      "必须得": 11312,
      "带走": 11313,
      "更是": 11314,
      "老家": 11315,
      "不应该": 11316,
      "去去": 11317,
      "海洋": 11318,
      "我那": 11319,
      "发布": 11320,
      "家族": 11321,
      "只要你": 11322,
      "了她": 11323,
      "还想": 11324,
      "在地上": 11325,
      "自我": 11326,
      "镜子": 11327,
      "规律": 11328,
      "资格": 11329,
      "ta1": 11330,
      "全面": 11331,
      "功夫": 11332,
      "打球": 11333,
      "你怎么了": 11334,
      "影子": 11335,
      "咱们俩": 11336,
      "找一个": 11337,
      "燕子": 11338,
      "爸妈": 11339,
      "是非常": 11340,
      "热情": 11341,
      "理论": 11342,
      "给你的": 11343,
      "方面的": 11344,
      "数量": 11345,
      "死者": 11346,
      "的位置": 11347,
      "请坐": 11348,
      "一说": 11349,
      "不清": 11350,
      "我这儿": 11351,
      "ho": 11352,
      "不是很": 11353,
      "实施": 11354,
      "哈哈哈哈": 11355,
      "走路": 11356,
      "过分": 11357,
      "最后一": 11358,
      "付出": 11359,
      "在那": 11360,
      "姐夫": 11361,
      "本书": 11362,
      "自行": 11363,
      "下列说法": 11364,
      "大量": 11365,
      "据说": 11366,
      "公里": 11367,
      "法国": 11368,
      "他去": 11369,
      "两年": 11370,
      "没有没有": 11371,
      "放到": 11372,
      "村民": 11373,
      "接到": 11374,
      "眼镜": 11375,
      "你让我": 11376,
      "外国": 11377,
      "半夜": 11378,
      "发了": 11379,
      "子弹": 11380,
      "彼此": 11381,
      "这些人": 11382,
      "其实我": 11383,
      "睡着了": 11384,
      "毛毛": 11385,
      "吧啊": 11386,
[...]
